@00 FFF9B8
@01 FFF964
@02 FFF993
@03 FFFA45
@04 FFFB73
@05 FFFD0C
@06 FFFEF6
@07 000112
@08 00033A
@09 000543
@0A 000704
@0B 000852
@0C 000908
@0D 00090B
@0E 000849
@0F 0006BF
@10 00047C
@11 00019C
@12 FFFE50
@13 FFFAD3
@14 FFF76F
@15 FFF471
@16 FFF226
@17 FFF0D4
@18 FFF0B4
@19 FFF1E8
@1A FFF479
@1B FFF851
@1C FFFD3C
@1D 0002E7
@1E 0008E5
@1F 000EB7
