@00 FFF4C2
@01 FFF5E8
@02 FFF7F4
@03 FFFAC6
@04 FFFE2B
@05 0001E0
@06 00059B
@07 00090C
@08 000BE4
@09 000DE1
@0A 000ECD
@0B 000E87
@0C 000D07
@0D 000A60
@0E 0006BB
@0F 00025C
@10 FFFD97
@11 FFF8CE
@12 FFF468
@13 FFF0C6
@14 FFEE40
@15 FFED18
@16 FFED77
@17 FFEF65
@18 FFF2CB
@19 FFF771
@1A FFFD01
@1B 00030F
@1C 00091E
@1D 000EAE
@1E 001341
@1F 00166C
@20 0017DB
@21 00175D
@22 0014E8
@23 00109C
@24 000AC1
@25 0003C2
@26 FFFC2A
@27 FFF494
@28 FFEDA2
@29 FFE7EF
@2A FFE400
@2B FFE23D
@2C FFE2E1
@2D FFE5F7
@2E FFEB56
@2F FFF2A2
@30 FFFB55
@31 0004C2
@32 000E29
@33 0016C0
@34 001DC9
@35 0022A0
@36 0024C6
@37 0023F4
@38 00201F
@39 00197A
@3A 001077
@3B 0005BF
@3C FFFA25
@3D FFEE98
@3E FFE40D
@3F FFDB6F
