@00 00124E
@01 0005EC
@02 FFFA4C
@03 FFEFA0
@04 FFE613
@05 FFDDC4
@06 FFD6CC
@07 FFD137
@08 FFCD0B
@09 FFCA45
@0A FFC8DB
@0B FFC8BA
@0C FFC9CA
@0D FFCBEF
@0E FFCF07
@0F FFD2EE
@10 FFD77F
@11 FFDC92
@12 FFE1FF
@13 FFE7A2
@14 FFED56
@15 FFF2F8
@16 FFF86A
@17 FFFD90
@18 000254
@19 0006A3
@1A 000A6C
@1B 000DA7
@1C 00104C
@1D 00125A
@1E 0013D2
@1F 0014B8
