@00 FFCAE4
@01 FFCD51
@02 FFD3CD
@03 FFDDC7
@04 FFEA68
@05 FFF8A4
@06 000752
@07 001542
@08 002155
@09 002A9A
@0A 003056
@0B 00321E
@0C 002FD8
@0D 0029BC
@0E 002052
@0F 001466
@10 0006F4
@11 FFF915
@12 FFEBE7
@13 FFE07A
@14 FFD7B5
@15 FFD245
@16 FFD092
@17 FFD2B7
@18 FFD87D
@19 FFE164
@1A FFECAD
@1B FFF969
@1C 00068F
@1D 00130C
@1E 001DE3
@1F 002636
@20 002B61
@21 002CFF
@22 002AF9
@23 002581
@24 001D0F
@25 001259
@26 000642
@27 FFF9C6
@28 FFEDE7
@29 FFE39A
@2A FFDBAE
@2B FFD6C3
@2C FFD537
@2D FFD722
@2E FFDC54
@2F FFE45B
@30 FFEE8A
@31 FFFA0B
@32 0005EE
@33 00113B
@34 001B0B
@35 002297
@36 002748
@37 0028C4
@38 0026F2
@39 002200
@3A 001A5B
@3B 0010A6
@3C 0005AE
@3D FFFA58
@3E FFEF90
@3F FFE633
