@00 00010B
@01 00005C
@02 FFFFA4
@03 FFFEF3
@04 FFFE57
@05 FFFDDC
@06 FFFD8E
@07 FFFD71
@08 FFFD8A
@09 FFFDD6
@0A FFFE50
@0B FFFEED
@0C FFFFA2
@0D 00005F
@0E 000115
@0F 0001B6
@10 000234
@11 000285
@12 0002A2
@13 000288
@14 00023A
@15 0001BD
@16 00011B
@17 000061
@18 FFFF9F
@19 FFFEE3
@1A FFFE3D
@1B FFFDBB
@1C FFFD68
@1D FFFD4A
@1E FFFD65
@1F FFFDB5
@20 FFFE36
@21 FFFEDD
@22 FFFF9C
@23 000064
@24 000126
@25 0001D0
@26 000256
@27 0002AB
@28 0002CA
@29 0002AF
@2A 00025C
@2B 0001D7
@2C 00012C
@2D 000067
@2E FFFF99
@2F FFFED2
@30 FFFE23
@31 FFFD99
@32 FFFD41
@33 FFFD21
@34 FFFD3D
@35 FFFD93
@36 FFFE1B
@37 FFFECC
@38 FFFF96
@39 00006A
@3A 000137
@3B 0001EB
@3C 000279
@3D 0002D3
@3E 0002F4
@3F 0002D7
