@00 000079
@01 00008A
@02 000090
@03 00008B
@04 00007A
@05 00005F
@06 00003D
@07 000015
@08 FFFFEB
@09 FFFFC3
@0A FFFF9F
@0B FFFF84
@0C FFFF72
@0D FFFF6B
@0E FFFF71
@0F FFFF82
@10 FFFF9E
@11 FFFFC2
@12 FFFFEB
@13 000015
@14 00003F
@15 000063
@16 000080
@17 000093
@18 000099
@19 000093
@1A 000082
@1B 000065
@1C 000040
@1D 000016
@1E FFFFEA
@1F FFFFBF
@20 FFFF99
@21 FFFF7C
@22 FFFF69
@23 FFFF62
@24 FFFF68
@25 FFFF7A
@26 FFFF98
@27 FFFFBE
@28 FFFFE9
@29 000017
@2A 000043
@2B 00006A
@2C 000088
@2D 00009C
@2E 0000A3
@2F 00009D
@30 00008A
@31 00006C
@32 000044
@33 000018
@34 FFFFE8
@35 FFFFBB
@36 FFFF93
@37 FFFF73
@38 FFFF5F
@39 FFFF58
@3A FFFF5E
@3B FFFF72
@3C FFFF91
@3D FFFFB9
@3E FFFFE8
@3F 000018
