@00 FFCE0CE7
@01 FFD05CB7
@02 FFD67BAC
@03 FFDFDFFA
@04 FFEBBE19
@05 FFF919EE
@06 0006DBA1
@07 0013E679
@08 001F2FC8
@09 0027D433
@0A 002D297C
@0B 002ECB8E
@0C 002CA3BA
@0D 0026E9A3
@0E 001E1DDD
@0F 0012FEC1
@10 00067862
@11 FFF9910F
@12 FFED53E8
@13 FFE2BB53
@14 FFDA9D05
@15 FFD5993D
@16 FFD40E74
@17 FFD61284
@18 FFDB71B3
@19 FFE3B3AF
@1A FFEE2600
@1B FFF9EB0B
@1C 00060C60
@1D 00118ED9
@1E 001B86D9
@1F 00232B1D
@20 0027E48D
@21 002959D9
@22 002775FE
@23 0022693C
@24 001AA471
@25 0010CF54
@26 0005BA59
@27 FFFA4D7F
@28 FFEF755B
@29 FFE61005
@2A FFDEDB5C
@2B FFDA6611
@2C FFD904AB
@2D FFDACB58
@2E FFDF8CF7
@2F FFE6DF6B
@30 FFF024CB
@31 FFFA98A2
@32 0005602A
@33 000F9C26
@34 00187AE4
@35 001F4905
@36 00237F96
@37 0024CE7F
@38 00232266
@39 001EA59B
@3A 0017BC11
@3B 000EFABB
@3C 00051B08
@3D FFFAEB9B
@3E FFF13F69
@3F FFE8DCB1
