@00 FFA2CF
@01 FF85D0
@02 FF71BD
@03 FF689E
@04 FF6BAB
@05 FF7B29
@06 FF965B
@07 FFBB85
@08 FFE805
@09 001884
@0A 00492E
@0B 007602
@0C 009B1D
@0D 00B513
@0E 00C138
@0F 00BDE0
@10 00AA90
@11 008815
@12 005883
@13 001F1A
@14 FFE015
@15 FFA05A
@16 FF6521
@17 FF338B
@18 FF1039
@19 FEFEE7
@1A FF0210
@1B FF1AA8
@1C FF47FA
@1D FF8795
@1E FFD56A
@1F 002C00
@20 0084CE
@21 00D8B1
@22 012069
@23 01552E
@24 01713D
@25 017058
@26 01503B
@27 0110E5
@28 00B4C8
@29 0040CA
@2A FFBC18
@2B FF2FCE
@2C FEA67D
@2D FE2B88
@2E FDCA73
@2F FD8E1B
@30 FD8001
@31 FDA78B
@32 FE0979
@33 FEA767
@34 FF7F93
@35 008CC4
@36 01C676
@37 032132
@38 048F20
@39 0600B5
@3A 076592
@3B 08AD63
@3C 09C8CF
@3D 0AAA55
@3E 0B4713
@3F 0B9768
