@00 FFCCC4
@01 FFD2D6
@02 FFDCA6
@03 FFE973
@04 FFF83B
@05 0007D0
@06 0016ED
@07 002459
@08 002EF5
@09 0035DC
@0A 003874
@0B 00367A
@0C 00300A
@0D 00259D
@0E 001800
@0F 000845
@10 FFF7AE
@11 FFE793
@12 FFD944
@13 FFCDF2
@14 FFC691
@15 FFC3C7
@16 FFC5DE
@17 FFCCB8
@18 FFD7D6
@19 FFE65D
@1A FFF72A
@1B 0008E5
@1C 001A1F
@1D 002970
@1E 003593
@1F 003D7E
@20 004081
@21 003E4B
@22 0036F9
@23 002B12
@24 001B81
@25 00097C
@26 FFF674
@27 FFE3F1
@28 FFD378
@29 FFC668
@2A FFBDDC
@2B FFBA97
@2C FFBCF1
@2D FFC4CB
@2E FFD196
@2F FFE25A
@30 FFF5C5
@31 000A4E
@32 001E4B
@33 00301A
@34 003E3F
@35 004784
@36 004B17
@37 004896
@38 00401F
@39 00324B
@3A 002026
@3B 000B19
@3C FFF4D1
@3D FFDF1A
@3E FFCBBB
@3F FFBC52
