@00 000A6D
@01 00107C
@02 00153E
@03 00184D
@04 001967
@05 001873
@06 001580
@07 0010CA
@08 000AAF
@09 0003AC
@0A FFFC51
@0B FFF538
@0C FFEEF3
@0D FFEA07
@0E FFE6DD
@0F FFE5B8
@10 FFE6B5
@11 FFE9C1
@12 FFEEA1
@13 FFF4F2
@14 FFFC33
@15 0003D0
@16 000B29
@17 0011A6
@18 0016BF
@19 001A06
@1A 001B35
@1B 001A31
@1C 001709
@1D 0011FD
@1E 000B73
@1F 0003EF
@20 FFFC0D
@21 FFF471
@22 FFEDB8
@23 FFE870
@24 FFE50A
@25 FFE3CF
@26 FFE4DC
@27 FFE820
@28 FFED5B
@29 FFF422
@2A FFFBEC
@2B 000418
@2C 000BFC
@2D 0012F5
@2E 00186F
@2F 001BF6
@30 001D3D
@31 001C26
@32 0018C3
@33 001357
@34 000C4F
@35 00043B
@36 FFFBC1
@37 FFF390
@38 FFEC54
@39 FFE6A4
@3A FFE2FB
@3B FFE1A6
@3C FFE2C7
@3D FFE64B
@3E FFEBEB
@3F FFF337
