@00 000A85BF
@01 00092F04
@02 00071DC2
@03 00047E5D
@04 0001884C
@05 FFFE7980
@06 FFFB915A
@07 FFF90B88
@08 FFF71B3E
@09 FFF5E727
@0A FFF58665
@0B FFF5FED7
@0C FFF744C7
@0D FFF93C08
@0E FFFBBA5F
@0F FFFE8B11
@10 00017337
@11 00043692
@12 00069C69
@13 00087413
@14 000998D3
@15 0009F4B1
@16 00098220
@17 00084C46
@18 00066DF0
@19 00040F43
@1A 00016262
@1B FFFE9F44
@1C FFFBFF2A
@1D FFF9B7F9
@1E FFF7F7E9
@1F FFF6E1DD
@20 FFF68AAE
@21 FFF6F79D
@22 FFF81E0D
@23 FFF9E483
@24 FFFC24D6
@25 FFFEAF66
@26 00014F06
@27 0003CD55
@28 0005F727
@29 0007A099
@2A 0008A88E
@2B 0008FB3F
@2C 000893B5
@2D 00077C0B
@2E 0005CC78
@2F 0003A93B
@30 00013F90
@31 FFFEC1F4
@32 FFFC6407
@33 FFFA565C
@34 FFF8C297
@35 FFF7C824
@36 FFF779C1
@37 FFF7DC1F
@38 FFF8E5A1
@39 FFFA7F45
@3A FFFC86A2
@3B FFFED0C6
@3C 00012DC7
@3D 00036CAA
@3E 00055F5A
@3F 0006DE57
