@00 0013D5
@01 0017B9
@02 0019EB
@03 001A0F
@04 0017EE
@05 001381
@06 000CF3
@07 0004A4
@08 FFFB26
@09 FFF131
@0A FFE79D
@0B FFDF48
@0C FFD90B
@0D FFD5A1
@0E FFD598
@0F FFD93B
@10 FFE08B
@11 FFEB35
@12 FFF895
@13 0007B9
@14 001777
@15 00267D
@16 00336D
@17 003CFD
@18 004213
@19 0041E1
@1A 003C02
@1B 003084
@1C 001FF5
@1D 000B5D
@1E FFF435
@1F FFDC47
