@00 00004D
@01 0000DF
@02 00015F
@03 0001C1
@04 0001FF
@05 000213
@06 0001FC
@07 0001BC
@08 000159
@09 0000DA
@0A 00004B
@0B FFFFB6
@0C FFFF28
@0D FFFEAC
@0E FFFE4C
@0F FFFE11
@10 FFFDFD
@11 FFFE13
@12 FFFE51
@13 FFFEB2
@14 FFFF2D
@15 FFFFB8
@16 000048
@17 0000D2
@18 00014A
@19 0001A6
@1A 0001E0
@1B 0001F3
@1C 0001DE
@1D 0001A2
@1E 000144
@1F 0000CD
@20 000046
@21 FFFFBA
@22 FFFF35
@23 FFFEC0
@24 FFFE67
@25 FFFE2E
@26 FFFE1C
@27 FFFE31
@28 FFFE6B
@29 FFFEC6
@2A FFFF39
@2B FFFFBC
@2C 000044
@2D 0000C5
@2E 000136
@2F 00018D
@30 0001C3
@31 0001D5
@32 0001C1
@33 000188
@34 000130
@35 0000C1
@36 000042
@37 FFFFBE
@38 FFFF41
@39 FFFED4
@3A FFFE80
@3B FFFE4B
@3C FFFE3A
@3D FFFE4D
@3E FFFE84
@3F FFFED9
