@00 0001F9
@01 00031E
@02 000403
@03 000497
@04 0004CB
@05 00049C
@06 00040D
@07 000329
@08 000203
@09 0000B1
@0A FFFF4F
@0B FFFDFA
@0C FFFCCD
@0D FFFBE2
@0E FFFB4B
@0F FFFB15
@10 FFFB45
@11 FFFBD8
@12 FFFCC2
@13 FFFDF0
@14 FFFF4B
@15 0000B6
@16 000214
@17 000348
@18 000439
@19 0004D4
@1A 00050B
@1B 0004DA
@1C 000443
@1D 000354
@1E 00021D
@1F 0000BA
@20 FFFF46
@21 FFFDDF
@22 FFFCA2
@23 FFFBAB
@24 FFFB0C
@25 FFFAD3
@26 FFFB06
@27 FFFBA0
@28 FFFC96
@29 FFFDD5
@2A FFFF41
@2B 0000BF
@2C 00022F
@2D 000374
@2E 000472
@2F 000515
@30 00054F
@31 00051B
@32 00047C
@33 000380
@34 00023A
@35 0000C4
@36 FFFF3C
@37 FFFDC2
@38 FFFC76
@39 FFFB71
@3A FFFACA
@3B FFFA8F
@3C FFFAC4
@3D FFFB66
@3E FFFC69
@3F FFFDB8
