00262E
002673
002741
002898
002A77
002CDD
002FC8
003337
003727
003B96
004081
0045E5
004BBF
00520B
0058C5
005FE8
006771
006F5B
0077A1
00803D
00892A
009262
009BE1
00A59F
00AF96
00B9C2
00C41A
00CE99
00D938
00E3F0
00EEBB
00F992
01046E
010F48
011A1A
0124DD
012F89
013A19
014485
014EC8
0158DA
0162B6
016C55
0175B1
017EC5
01878A
018FFB
019814
019FCE
01A725
01AE14
01B497
01BAAB
01C04A
01C572
01CA1F
01CE4F
01D1FF
01D52C
01D7D5
01D9F8
01DB93
01DCA5
01DD2F
01DD2F
01DCA5
01DB93
01D9F8
01D7D5
01D52C
01D1FF
01CE4F
01CA1F
01C572
01C04A
01BAAB
01B497
01AE14
01A725
019FCE
019814
018FFB
01878A
017EC5
0175B1
016C55
0162B6
0158DA
014EC8
014485
013A19
012F89
0124DD
011A1A
010F48
01046E
00F992
00EEBB
00E3F0
00D938
00CE99
00C41A
00B9C2
00AF96
00A59F
009BE1
009262
00892A
00803D
0077A1
006F5B
006771
005FE8
0058C5
00520B
004BBF
0045E5
004081
003B96
003727
003337
002FC8
002CDD
002A77
002898
002741
002673
00262E
