@00 0006DE57
@01 00055F5A
@02 00036CAA
@03 00012DC7
@04 FFFED0C6
@05 FFFC86A2
@06 FFFA7F45
@07 FFF8E5A1
@08 FFF7DC1F
@09 FFF779C1
@0A FFF7C824
@0B FFF8C297
@0C FFFA565C
@0D FFFC6407
@0E FFFEC1F4
@0F 00013F90
@10 0003A93B
@11 0005CC78
@12 00077C0B
@13 000893B5
@14 0008FB3F
@15 0008A88E
@16 0007A099
@17 0005F727
@18 0003CD55
@19 00014F06
@1A FFFEAF66
@1B FFFC24D6
@1C FFF9E483
@1D FFF81E0D
@1E FFF6F79D
@1F FFF68AAE
@20 FFF6E1DD
@21 FFF7F7E9
@22 FFF9B7F9
@23 FFFBFF2A
@24 FFFE9F44
@25 00016262
@26 00040F43
@27 00066DF0
@28 00084C46
@29 00098220
@2A 0009F4B1
@2B 000998D3
@2C 00087413
@2D 00069C69
@2E 00043692
@2F 00017337
@30 FFFE8B11
@31 FFFBBA5F
@32 FFF93C08
@33 FFF744C7
@34 FFF5FED7
@35 FFF58665
@36 FFF5E727
@37 FFF71B3E
@38 FFF90B88
@39 FFFB915A
@3A FFFE7980
@3B 0001884C
@3C 00047E5D
@3D 00071DC2
@3E 00092F04
@3F 000A85BF
