@00 FFFFB3
@01 FFFF1F
@02 FFFE9D
@03 FFFE36
@04 FFFDF4
@05 FFFDDD
@06 FFFDF1
@07 FFFE31
@08 FFFE97
@09 FFFF1A
@0A FFFFB1
@0B 00004F
@0C 0000E8
@0D 00016E
@0E 0001D8
@0F 00021C
@10 000234
@11 00021F
@12 0001DD
@13 000175
@14 0000ED
@15 000051
@16 FFFFAE
@17 FFFF11
@18 FFFE86
@19 FFFE1A
@1A FFFDD4
@1B FFFDBB
@1C FFFDD1
@1D FFFE14
@1E FFFE80
@1F FFFF0C
@20 FFFFAC
@21 000054
@22 0000F6
@23 000185
@24 0001F5
@25 00023D
@26 000257
@27 000240
@28 0001FB
@29 00018C
@2A 0000FC
@2B 000056
@2C FFFFA9
@2D FFFF02
@2E FFFE6F
@2F FFFDFC
@30 FFFDB1
@31 FFFD97
@32 FFFDAE
@33 FFFDF6
@34 FFFE69
@35 FFFEFD
@36 FFFFA7
@37 000059
@38 000105
@39 00019D
@3A 000214
@3B 000260
@3C 00027C
@3D 000264
@3E 00021A
@3F 0001A4
