@00 FFC612
@01 FFEC8C
@02 001311
@03 003691
@04 005458
@05 006A42
@06 0076DD
@07 007985
@08 007262
@09 006265
@0A 004B28
@0B 002EC9
@0C 000FBB
@0D FFF08F
@0E FFD3C3
@0F FFBB8A
@10 FFA9A9
@11 FF9F51
@12 FF9D0F
@13 FFA2C8
@14 FFAFBE
@15 FFC2A5
@16 FFD9C7
@17 FFF324
@18 000CA2
@19 002438
@1A 003815
@1B 0046C5
@1C 004F4A
@1D 00512E
@1E 004C85
@1F 0041E9
@20 003268
@21 001F6A
@22 000A93
@23 FFF59D
@24 FFE236
@25 FFD1DD
@26 FFC5C5
@27 FFBEBF
@28 FFBD2F
@29 FFC104
@2A FFC9BE
@2B FFD681
@2C FFE624
@2D FFF74C
@2E 00088D
@2F 001885
@30 0025FA
@31 002FED
@32 0035B2
@33 0036F9
@34 0033D0
@35 002CA0
@36 00221F
@37 001542
@38 000727
@39 FFF8F9
@3A FFEBDC
@3B FFE0D2
@3C FFD8AA
@3D FFD3F2
@3E FFD2EA
@3F FFD586
