@00 000EB7
@01 0008E5
@02 0002E7
@03 FFFD3C
@04 FFF851
@05 FFF479
@06 FFF1E8
@07 FFF0B4
@08 FFF0D4
@09 FFF226
@0A FFF471
@0B FFF76F
@0C FFFAD3
@0D FFFE50
@0E 00019C
@0F 00047C
@10 0006BF
@11 000849
@12 00090B
@13 000908
@14 000852
@15 000704
@16 000543
@17 00033A
@18 000112
@19 FFFEF6
@1A FFFD0C
@1B FFFB73
@1C FFFA45
@1D FFF993
@1E FFF964
@1F FFF9B8
