@00 000E6F
@01 000F02
@02 000E5E
@03 000C91
@04 0009C2
@05 00062D
@06 00021C
@07 FFFDE5
@08 FFF9DE
@09 FFF65B
@0A FFF3A4
@0B FFF1F0
@0C FFF161
@0D FFF201
@0E FFF3C2
@0F FFF67E
@10 FFF9FC
@11 FFFDF2
@12 00020D
@13 0005F9
@14 000965
@15 000C0A
@16 000DB3
@17 000E3F
@18 000DA3
@19 000BEE
@1A 000943
@1B 0005DD
@1C 000201
@1D FFFE00
@1E FFFA2E
@1F FFF6D8
@20 FFF444
@21 FFF2A6
@22 FFF21E
@23 FFF2B6
@24 FFF460
@25 FFF6F9
@26 FFFA49
@27 FFFE0C
@28 0001F3
@29 0005AC
@2A 0008EC
@2B 000B70
@2C 000D03
@2D 000D88
@2E 000CF4
@2F 000B55
@30 0008CD
@31 000592
@32 0001E7
@33 FFFE1A
@34 FFFA78
@35 FFF74D
@36 FFF4DA
@37 FFF350
@38 FFF2CF
@39 FFF35F
@3A FFF4F4
@3B FFF76C
@3C FFFA92
@3D FFFE25
@3E 0001DA
@3F 000564
