@00 FFDEFE
@01 FFDA82
@02 FFD917
@03 FFDAD2
@04 FFDF89
@05 FFE6D5
@06 FFF01A
@07 FFFA93
@08 000567
@09 000FB5
@0A 0018A9
@0B 001F8D
@0C 0023D7
@0D 002534
@0E 00238E
@0F 001F0D
@10 001813
@11 000F36
@12 000531
@13 FFFAD4
@14 FFF0F8
@15 FFE865
@16 FFE1CB
@17 FFDDAF
@18 FFDC5F
@19 FFDDF3
@1A FFE242
@1B FFE8F0
@1C FFF16D
@1D FFFB07
@1E 0004F4
@1F 000E69
@20 0016A1
@21 001CF5
@22 0020E8
@23 00222A
@24 0020A9
@25 001C87
@26 001620
@27 000DFC
@28 0004C6
@29 FFFB3F
@2A FFF22C
@2B FFEA48
@2C FFE433
@2D FFE069
@2E FFDF32
@2F FFE0A3
@30 FFE49A
@31 FFEAC0
@32 FFF291
@33 FFFB6A
@34 000492
@35 000D4A
@36 0014DF
@37 001AB8
@38 001E5E
@39 001F89
@3A 001E27
@3B 001A58
@3C 00146F
@3D 000CEB
@3E 000469
@3F FFFB9B
