@00 FFFEC7
@01 FFFF0D
@02 FFFF66
@03 FFFFCB
@04 000034
@05 000098
@06 0000F0
@07 000133
@08 00015D
@09 00016B
@0A 00015B
@0B 00012F
@0C 0000EB
@0D 000095
@0E 000033
@0F FFFFCD
@10 FFFF6D
@11 FFFF18
@12 FFFED7
@13 FFFEAE
@14 FFFEA1
@15 FFFEB0
@16 FFFEDB
@17 FFFF1C
@18 FFFF70
@19 FFFFCF
@1A 000031
@1B 00008F
@1C 0000E0
@1D 00011F
@1E 000147
@1F 000153
@20 000145
@21 00011C
@22 0000DC
@23 00008B
@24 000030
@25 FFFFD1
@26 FFFF76
@27 FFFF27
@28 FFFEEA
@29 FFFEC4
@2A FFFEB8
@2B FFFEC6
@2C FFFEEE
@2D FFFF2B
@2E FFFF79
@2F FFFFD2
@30 00002E
@31 000086
@32 0000D2
@33 00010D
@34 000132
@35 00013D
@36 000130
@37 000109
@38 0000CE
@39 000082
@3A 00002D
@3B FFFFD4
@3C FFFF7F
@3D FFFF35
@3E FFFEFC
@3F FFFED9
