@00 FF956384
@01 FF74D08A
@02 FF5EA08E
@03 FF54FD3F
@04 FF591D7D
@05 FF6B242B
@06 FF8A140B
@07 FFB3DA52
@08 FFE56FC8
@09 001B0EA6
@0A 0050798A
@0B 00814E80
@0C 00A95FF5
@0D 00C50CB9
@0E 00D1901B
@0F 00CD437E
@10 00B7CBBE
@11 00922E00
@12 005EC975
@13 00213571
@14 FFDE0576
@15 FF9A76CE
@16 FF5C0D48
@17 FF282610
@18 FF0388B4
@19 FEF1FEDC
@1A FEF5FAF6
@1B FF10556D
@1C FF402673
@1D FF82C096
@1E FFD3CE01
@1F 002D8FCA
@20 00893C27
@21 00DF75DF
@22 0128D560
@23 015E7A20
@24 017A9A0F
@25 0179049E
@26 01578F37
@27 01166271
@28 00B820FA
@29 0041E3CC
@2A FFBB09F9
@2B FF2CDD78
@2C FEA21167
@2D FE2620FB
@2E FDC498C1
@2F FD8855AC
@30 FD7AC663
@31 FDA33B97
@32 FE065360
@33 FEA58A65
@34 FF7EFB07
@35 008D5051
@36 01C7EECF
@37 0323523E
@38 04919B60
@39 06034620
@3A 0767FD7A
@3B 08AF806E
@3C 09CA8A20
@3D 0AABAED6
@3E 0B482019
@3F 0B984BB9
