@00 FFFF30E4
@01 FFFF14BE
@02 FFFF0BCD
@03 FFFF16A1
@04 FFFF3432
@05 FFFF61F9
@06 FFFF9C25
@07 FFFFDDEC
@08 000021F3
@09 000062BA
@0A 00009B0F
@0B 0000C676
@0C 0000E18A
@0D 0000EA38
@0E 0000DFF1
@0F 0000C3A9
@10 000097C9
@11 00005FF6
@12 000020C4
@13 FFFFDF58
@14 FFFFA0FD
@15 FFFF6AB3
@16 FFFF40CF
@17 FFFF269E
@18 FFFF1E22
@19 FFFF27EF
@1A FFFF431F
@1B FFFF6D66
@1C FFFFA345
@1D FFFFE052
@1E 00001F97
@1F 00005BF7
@20 00009096
@21 0000B941
@22 0000D2C0
@23 0000DB19
@24 0000D1B5
@25 0000B76C
@26 00008E72
@27 00005A27
@28 00001ED1
@29 FFFFE141
@2A FFFFA671
@2B FFFF731D
@2C FFFF4B62
@2D FFFF3268
@2E FFFF2A24
@2F FFFF3330
@30 FFFF4CC1
@31 FFFF74B7
@32 FFFFA7CC
@33 FFFFE1D5
@34 00001E1E
@35 000057C7
@36 00008A2B
@37 0000B13D
@38 0000C9DE
@39 0000D21C
@3A 0000C957
@3B 0000B050
@3C 00008916
@3D 000056DE
@3E 00001DBA
@3F FFFFE24D
