@00 FFFEB6E7
@01 FFFEDDC5
@02 FFFF1CC1
@03 FFFF6F00
@04 FFFFCE08
@05 00003243
@06 00009394
@07 0000EA05
@08 00012E69
@09 00015AF7
@0A 00016BC4
@0B 00015F1D
@0C 000135AF
@0D 0000F283
@0E 00009AC2
@0F 00003556
@10 FFFFCA58
@11 FFFF626F
@12 FFFF061C
@13 FFFEBD0C
@14 FFFE8D6D
@15 FFFE7B72
@16 FFFE88EC
@17 FFFEB525
@18 FFFEFCE3
@19 FFFF5AA1
@1A FFFFC700
@1B 00003959
@1C 0000A86A
@1D 00010B1D
@1E 0001593E
@1F 00018C2D
@20 00019F6F
@21 0001910D
@22 000161CA
@23 00011518
@24 0000B0DB
@25 00003CF6
@26 FFFFC2AA
@27 FFFF4BDB
@28 FFFEE245
@29 FFFE8EAE
@2A FFFE582B
@2B FFFE438C
@2C FFFE52EB
@2D FFFE8578
@2E FFFED784
@2F FFFF42C2
@30 FFFFBEC5
@31 000041A3
@32 0000C0C7
@33 000131C7
@34 00018B3E
@35 0001C597
@36 0001DBAB
@37 0001CB3B
@38 00019523
@39 00013D54
@3A 0000CA8C
@3B 000045D2
@3C FFFFB9BF
@3D FFFF31A9
@3E FFFEB8B6
@3F FFFE58F2
