@00 FEE688
@01 FEE6BE
@02 FEED3B
@03 FEFA68
@04 FF0E99
@05 FF2A09
@06 FF4CD9
@07 FF770E
@08 FFA890
@09 FFE126
@0A 00207D
@0B 006623
@0C 00B188
@0D 010201
@0E 0156CD
@0F 01AF0F
@10 0209DA
@11 02662F
@12 02C302
@13 031F3E
@14 0379CA
@15 03D18B
@16 04256B
@17 04745D
@18 04BD5E
@19 04FF7F
@1A 0539E4
@1B 056BC8
@1C 059483
@1D 05B38B
@1E 05C877
@1F 05D2FF
