@00 0002AA
@01 0001B0
@02 000094
@03 FFFF6D
@04 FFFE53
@05 FFFD5E
@06 FFFCA0
@07 FFFC29
@08 FFFC02
@09 FFFC2E
@0A FFFCA8
@0B FFFD68
@0C FFFE5B
@0D FFFF70
@0E 00008F
@0F 0001A1
@10 000290
@11 000349
@12 0003BD
@13 0003E3
@14 0003B9
@15 000341
@16 000287
@17 000199
@18 00008C
@19 FFFF74
@1A FFFE6A
@1B FFFD81
@1C FFFCCD
@1D FFFC5C
@1E FFFC37
@1F FFFC61
@20 FFFCD5
@21 FFFD8A
@22 FFFE71
@23 FFFF78
@24 000088
@25 00018C
@26 00026E
@27 00031D
@28 00038B
@29 0003AF
@2A 000387
@2B 000316
@2C 000265
@2D 000184
@2E 000085
@2F FFFF7C
@30 FFFE7F
@31 FFFDA2
@32 FFFCF8
@33 FFFC8D
@34 FFFC6A
@35 FFFC91
@36 FFFD00
@37 FFFDAB
@38 FFFE86
@39 FFFF7F
@3A 000081
@3B 000177
@3C 00024D
@3D 0002F3
@3E 00035B
@3F 00037D
