@00 FFF8E8
@01 FFFA7D
@02 FFFC83
@03 FFFECF
@04 000131
@05 000377
@06 000573
@07 0006FC
@08 0007F3
@09 000845
@0A 0007EA
@0B 0006ED
@0C 000561
@0D 000368
@0E 00012A
@0F FFFED7
@10 FFFC9E
@11 FFFAAE
@12 FFF92E
@13 FFF83E
@14 FFF7EE
@15 FFF846
@16 FFF93E
@17 FFFAC0
@18 FFFCAD
@19 FFFEDD
@1A 000122
@1B 00034D
@1C 000531
@1D 0006A8
@1E 000793
@1F 0007E0
@20 00078A
@21 000699
@22 000520
@23 00033E
@24 00011C
@25 FFFEE5
@26 FFFCC7
@27 FFFAEF
@28 FFF981
@29 FFF89C
@2A FFF850
@2B FFF8A4
@2C FFF990
@2D FFFB00
@2E FFFCD6
@2F FFFEEB
@30 000114
@31 000325
@32 0004F2
@33 000657
@34 000737
@35 000781
@36 00072F
@37 000649
@38 0004E1
@39 000317
@3A 00010E
@3B FFFEF2
@3C FFFCEE
@3D FFFB2C
@3E FFF9D0
@3F FFF8F6
