@00 00037D
@01 00035B
@02 0002F3
@03 00024D
@04 000177
@05 000081
@06 FFFF7F
@07 FFFE86
@08 FFFDAB
@09 FFFD00
@0A FFFC91
@0B FFFC6A
@0C FFFC8D
@0D FFFCF8
@0E FFFDA2
@0F FFFE7F
@10 FFFF7C
@11 000085
@12 000184
@13 000265
@14 000316
@15 000387
@16 0003AF
@17 00038B
@18 00031D
@19 00026E
@1A 00018C
@1B 000088
@1C FFFF78
@1D FFFE71
@1E FFFD8A
@1F FFFCD5
@20 FFFC61
@21 FFFC37
@22 FFFC5C
@23 FFFCCD
@24 FFFD81
@25 FFFE6A
@26 FFFF74
@27 00008C
@28 000199
@29 000287
@2A 000341
@2B 0003B9
@2C 0003E3
@2D 0003BD
@2E 000349
@2F 000290
@30 0001A1
@31 00008F
@32 FFFF70
@33 FFFE5B
@34 FFFD68
@35 FFFCA8
@36 FFFC2E
@37 FFFC02
@38 FFFC29
@39 FFFCA0
@3A FFFD5E
@3B FFFE53
@3C FFFF6D
@3D 000094
@3E 0001B0
@3F 0002AA
