@00 FFDB6F
@01 FFE40D
@02 FFEE98
@03 FFFA25
@04 0005BF
@05 001077
@06 00197A
@07 00201F
@08 0023F4
@09 0024C6
@0A 0022A0
@0B 001DC9
@0C 0016C0
@0D 000E29
@0E 0004C2
@0F FFFB55
@10 FFF2A2
@11 FFEB56
@12 FFE5F7
@13 FFE2E1
@14 FFE23D
@15 FFE400
@16 FFE7EF
@17 FFEDA2
@18 FFF494
@19 FFFC2A
@1A 0003C2
@1B 000AC1
@1C 00109C
@1D 0014E8
@1E 00175D
@1F 0017DB
@20 00166C
@21 001341
@22 000EAE
@23 00091E
@24 00030F
@25 FFFD01
@26 FFF771
@27 FFF2CB
@28 FFEF65
@29 FFED77
@2A FFED18
@2B FFEE40
@2C FFF0C6
@2D FFF468
@2E FFF8CE
@2F FFFD97
@30 00025C
@31 0006BB
@32 000A60
@33 000D07
@34 000E87
@35 000ECD
@36 000DE1
@37 000BE4
@38 00090C
@39 00059B
@3A 0001E0
@3B FFFE2B
@3C FFFAC6
@3D FFF7F4
@3E FFF5E8
@3F FFF4C2
