@00 001516
@01 0014F4
@02 001460
@03 001367
@04 001219
@05 001084
@06 000EB9
@07 000CC8
@08 000ABE
@09 0008AA
@0A 000698
@0B 000494
@0C 0002A7
@0D 0000D9
@0E FFFF31
@0F FFFDB4
@10 FFFC65
@11 FFFB46
@12 FFFA58
@13 FFF99B
@14 FFF90D
@15 FFF8AC
@16 FFF875
@17 FFF867
@18 FFF87D
@19 FFF8B5
@1A FFF90A
@1B FFF97B
@1C FFFA04
@1D FFFAA1
@1E FFFB52
@1F FFFC12
