@00 0003DE96
@01 0004F1FE
@02 00059C7F
@03 0005D16D
@04 00058DB8
@05 0004D815
@06 0003C054
@07 00025E0A
@08 0000CE8B
@09 FFFF3287
@0A FFFDAB59
@0B FFFC5854
@0C FFFB5445
@0D FFFAB351
@0E FFFA816B
@0F FFFAC172
@10 FFFB6D0D
@11 FFFC7544
@12 FFFDC3D3
@13 FFFF3D03
@14 0000C1F7
@15 00023334
@16 00037328
@17 0004688C
@18 0005005E
@19 00052F5E
@1A 0004F2DC
@1B 000450DC
@1C 0003577F
@1D 00021BCF
@1E 0000B7F2
@1F FFFF4908
@20 FFFDECC5
@21 FFFCBF09
@22 FFFBD7AA
@23 FFFB4890
@24 FFFB1C54
@25 FFFB5578
@26 FFFBEE4B
@27 FFFCD975
@28 FFFE031E
@29 FFFF529B
@2A 0000AC76
@2B 0001F4B1
@2C 00031107
@2D 0003EB02
@2E 000471C9
@2F 00049B63
@30 00046577
@31 0003D568
@32 0002F7CD
@33 0001DF5B
@34 0000A353
@35 FFFF5D91
@36 FFFE2875
@37 FFFD1CBB
@38 FFFC4F85
@39 FFFBD0B0
@3A FFFBA999
@3B FFFBDC70
@3C FFFC6421
@3D FFFD34CB
@3E FFFE3CCF
@3F FFFF6649
