@00 FFBE235A
@01 FFCD27CB
@02 FFE00305
@03 FFF52183
@04 000AC7E5
@05 001F3716
@06 0030D029
@07 003E350B
@08 00466387
@09 0048C87C
@0A 004549EC
@0B 003C472A
@0C 002E8F56
@0D 001D4F07
@0E 0009F6CC
@0F FFF61C92
@10 FFE35A8F
@11 FFD32E50
@12 FFC6DA8D
@13 FFBF4E2D
@14 FFBD125C
@15 FFC0410A
@16 FFC88479
@17 FFD51FC0
@18 FFE4FF6D
@19 FFF6D0DE
@1A 00091E56
@1B 001A6D76
@1C 00295DAA
@1D 0034C417
@1E 003BC2D5
@1F 003DD9A8
@20 003AEF00
@21 00335097
@22 0027ABCD
@23 0018FE66
@24 00088118
@25 FFF78DA2
@26 FFE78293
@27 FFD9A71A
@28 FFCF110C
@29 FFC88F3C
@2A FFC699D6
@2B FFC949D4
@2C FFD05847
@2D FFDB2541
@2E FFE8C5E0
@2F FFF8181F
@30 0007DADA
@31 0016C803
@32 0023AEE7
@33 002D8C5E
@34 00339F0D
@35 0035761D
@36 0032F945
@37 002C69A4
@38 00225B63
@39 0015A8CB
@3A 00075FD2
@3B FFF8ABCD
@3C FFEABCFD
@3D FFDEB00C
@3E FFD5776A
@3F FFCFC84E
