@00 FFDC47
@01 FFF435
@02 000B5D
@03 001FF5
@04 003084
@05 003C02
@06 0041E1
@07 004213
@08 003CFD
@09 00336D
@0A 00267D
@0B 001777
@0C 0007B9
@0D FFF895
@0E FFEB35
@0F FFE08B
@10 FFD93B
@11 FFD598
@12 FFD5A1
@13 FFD90B
@14 FFDF48
@15 FFE79D
@16 FFF131
@17 FFFB26
@18 0004A4
@19 000CF3
@1A 001381
@1B 0017EE
@1C 001A0F
@1D 0019EB
@1E 0017B9
@1F 0013D5
