@00 FFFB9B
@01 000469
@02 000CEB
@03 00146F
@04 001A58
@05 001E27
@06 001F89
@07 001E5E
@08 001AB8
@09 0014DF
@0A 000D4A
@0B 000492
@0C FFFB6A
@0D FFF291
@0E FFEAC0
@0F FFE49A
@10 FFE0A3
@11 FFDF32
@12 FFE069
@13 FFE433
@14 FFEA48
@15 FFF22C
@16 FFFB3F
@17 0004C6
@18 000DFC
@19 001620
@1A 001C87
@1B 0020A9
@1C 00222A
@1D 0020E8
@1E 001CF5
@1F 0016A1
@20 000E69
@21 0004F4
@22 FFFB07
@23 FFF16D
@24 FFE8F0
@25 FFE242
@26 FFDDF3
@27 FFDC5F
@28 FFDDAF
@29 FFE1CB
@2A FFE865
@2B FFF0F8
@2C FFFAD4
@2D 000531
@2E 000F36
@2F 001813
@30 001F0D
@31 00238E
@32 002534
@33 0023D7
@34 001F8D
@35 0018A9
@36 000FB5
@37 000567
@38 FFFA93
@39 FFF01A
@3A FFE6D5
@3B FFDF89
@3C FFDAD2
@3D FFD917
@3E FFDA82
@3F FFDEFE
