@00 000277A1
@01 0000D980
@02 FFFF2561
@03 FFFD7E90
@04 FFFC07A4
@05 FFFADFA7
@06 FFFA1F86
@07 FFF9D7FB
@08 FFFA1015
@09 FFFAC493
@0A FFFBE806
@0B FFFD63D2
@0C FFFF19ED
@0D 0000E73F
@0E 0002A66E
@0F 000432E8
@10 00056BDC
@11 000636F2
@12 0006827F
@13 00064713
@14 00058825
@15 000453F0
@16 0002C25E
@17 0000F335
@18 FFFF0B92
@19 FFFD32EE
@1A FFFB8FF0
@1B FFFA4545
@1C FFF96EBF
@1D FFF91F02
@1E FFF95DE7
@1F FFFA27BB
@20 FFFB6D73
@21 FFFD15C2
@22 FFFEFF14
@23 00010233
@24 0002F56C
@25 0004AFEB
@26 00060D15
@27 0006EF8D
@28 000743A7
@29 00070122
@2A 00062BEB
@2B 0004D3EC
@2C 000313E0
@2D 00010F3E
@2E FFFEEF6D
@2F FFFCE076
@30 FFFB0D6D
@31 FFF99CF4
@32 FFF8AE06
@33 FFF8555D
@34 FFF89BAC
@35 FFF97CC6
@36 FFFAE7D9
@37 FFFCC0AD
@38 FFFEE1D1
@39 00011F93
@3A 00034B80
@3B 00053824
@3C 0006BCC2
@3D 0007B8B2
@3E 0008161B
@3F 0007CBD9
