@00 FFFF37
@01 0000C9
@02 00024C
@03 0003A1
@04 0004AC
@05 000558
@06 000595
@07 00055E
@08 0004B7
@09 0003AE
@0A 000257
@0B 0000CE
@0C FFFF32
@0D FFFDA5
@0E FFFC47
@0F FFFB35
@10 FFFA86
@11 FFFA47
@12 FFFA7F
@13 FFFB2A
@14 FFFC3A
@15 FFFD9A
@16 FFFF2D
@17 0000D3
@18 00026A
@19 0003D1
@1A 0004EA
@1B 00059E
@1C 0005DE
@1D 0005A4
@1E 0004F5
@1F 0003DE
@20 000276
@21 0000D8
@22 FFFF27
@23 FFFD86
@24 FFFC16
@25 FFFAF6
@26 FFFA3E
@27 FFF9FC
@28 FFFA37
@29 FFFAEB
@2A FFFC09
@2B FFFD7B
@2C FFFF22
@2D 0000DE
@2E 00028A
@2F 000403
@30 00052A
@31 0005E7
@32 00062A
@33 0005EE
@34 000536
@35 000411
@36 000296
@37 0000E3
@38 FFFF1C
@39 FFFD66
@3A FFFBE4
@3B FFFAB5
@3C FFF9F3
@3D FFF9AE
@3E FFF9EC
@3F FFFAA9
