@00 000018
@01 FFFFE8
@02 FFFFB9
@03 FFFF91
@04 FFFF72
@05 FFFF5E
@06 FFFF58
@07 FFFF5F
@08 FFFF73
@09 FFFF93
@0A FFFFBB
@0B FFFFE8
@0C 000018
@0D 000044
@0E 00006C
@0F 00008A
@10 00009D
@11 0000A3
@12 00009C
@13 000088
@14 00006A
@15 000043
@16 000017
@17 FFFFE9
@18 FFFFBE
@19 FFFF98
@1A FFFF7A
@1B FFFF68
@1C FFFF62
@1D FFFF69
@1E FFFF7C
@1F FFFF99
@20 FFFFBF
@21 FFFFEA
@22 000016
@23 000040
@24 000065
@25 000082
@26 000093
@27 000099
@28 000093
@29 000080
@2A 000063
@2B 00003F
@2C 000015
@2D FFFFEB
@2E FFFFC2
@2F FFFF9E
@30 FFFF82
@31 FFFF71
@32 FFFF6B
@33 FFFF72
@34 FFFF84
@35 FFFF9F
@36 FFFFC3
@37 FFFFEB
@38 000015
@39 00003D
@3A 00005F
@3B 00007A
@3C 00008B
@3D 000090
@3E 00008A
@3F 000079
