@00 000198
@01 0004A4
@02 00074D
@03 00095C
@04 000AA6
@05 000B13
@06 000A9A
@07 000946
@08 000734
@09 00048F
@0A 00018F
@0B FFFE72
@0C FFFB79
@0D FFF8E0
@0E FFF6DE
@0F FFF59C
@10 FFF532
@11 FFF5A8
@12 FFF6F3
@13 FFF8F9
@14 FFFB8D
@15 FFFE7B
@16 000184
@17 00046B
@18 0006F4
@19 0008E9
@1A 000A24
@1B 000A8B
@1C 000A18
@1D 0008D5
@1E 0006DC
@1F 000457
@20 00017C
@21 FFFE85
@22 FFFBB0
@23 FFF938
@24 FFF74E
@25 FFF61B
@26 FFF5B6
@27 FFF626
@28 FFF762
@29 FFF94F
@2A FFFBC3
@2B FFFE8D
@2C 000172
@2D 000435
@2E 00069F
@2F 00087C
@30 0009A8
@31 000A0B
@32 00099D
@33 000869
@34 000688
@35 000422
@36 00016A
@37 FFFE97
@38 FFFBE5
@39 FFF98A
@3A FFF7B8
@3B FFF694
@3C FFF633
@3D FFF69E
@3E FFF7CB
@3F FFF9A0
