@00 FFFFAA
@01 FFFF79
@02 FFFF53
@03 FFFF3B
@04 FFFF33
@05 FFFF3C
@06 FFFF55
@07 FFFF7B
@08 FFFFAC
@09 FFFFE3
@0A 00001D
@0B 000053
@0C 000083
@0D 0000A7
@0E 0000BE
@0F 0000C6
@10 0000BD
@11 0000A5
@12 000080
@13 000051
@14 00001C
@15 FFFFE4
@16 FFFFB0
@17 FFFF82
@18 FFFF5E
@19 FFFF48
@1A FFFF41
@1B FFFF49
@1C FFFF60
@1D FFFF84
@1E FFFFB1
@1F FFFFE5
@20 00001B
@21 00004E
@22 00007A
@23 00009D
@24 0000B2
@25 0000B9
@26 0000B1
@27 00009B
@28 000078
@29 00004C
@2A 00001A
@2B FFFFE6
@2C FFFFB5
@2D FFFF8A
@2E FFFF68
@2F FFFF54
@30 FFFF4D
@31 FFFF55
@32 FFFF6A
@33 FFFF8C
@34 FFFFB6
@35 FFFFE7
@36 000019
@37 000049
@38 000073
@39 000093
@3A 0000A7
@3B 0000AD
@3C 0000A6
@3D 000091
@3E 000071
@3F 000047
