@00 FFFF5A
@01 FFFF97
@02 FFFFDC
@03 000024
@04 00006A
@05 0000A8
@06 0000D9
@07 0000F8
@08 000103
@09 0000FA
@0A 0000DB
@0B 0000AB
@0C 00006D
@0D 000025
@0E FFFFDA
@0F FFFF92
@10 FFFF52
@11 FFFF20
@12 FFFEFF
@13 FFFEF4
@14 FFFEFE
@15 FFFF1D
@16 FFFF4F
@17 FFFF8F
@18 FFFFD9
@19 000027
@1A 000072
@1B 0000B4
@1C 0000E8
@1D 000109
@1E 000115
@1F 00010B
@20 0000EB
@21 0000B7
@22 000075
@23 000028
@24 FFFFD8
@25 FFFF8A
@26 FFFF46
@27 FFFF10
@28 FFFEED
@29 FFFEE1
@2A FFFEEC
@2B FFFF0D
@2C FFFF42
@2D FFFF87
@2E FFFFD7
@2F 00002A
@30 00007A
@31 0000C1
@32 0000F8
@33 00011C
@34 000129
@35 00011E
@36 0000FB
@37 0000C4
@38 00007D
@39 00002B
@3A FFFFD5
@3B FFFF82
@3C FFFF39
@3D FFFEFF
@3E FFFEDA
@3F FFFECD
