@00 0014B8
@01 0013D2
@02 00125A
@03 00104C
@04 000DA7
@05 000A6C
@06 0006A3
@07 000254
@08 FFFD90
@09 FFF86A
@0A FFF2F8
@0B FFED56
@0C FFE7A2
@0D FFE1FF
@0E FFDC92
@0F FFD77F
@10 FFD2EE
@11 FFCF07
@12 FFCBEF
@13 FFC9CA
@14 FFC8BA
@15 FFC8DB
@16 FFCA45
@17 FFCD0B
@18 FFD137
@19 FFD6CC
@1A FFDDC4
@1B FFE613
@1C FFEFA0
@1D FFFA4C
@1E 0005EC
@1F 00124E
