@00 FFFEAAFE
@01 FFFEBAB2
@02 FFFEE46E
@03 FFFF2487
@04 FFFF7593
@05 FFFFD0D9
@06 00002EE2
@07 00008812
@08 0000D54A
@09 00011073
@0A 000134FD
@0B 0001403A
@0C 00013189
@0D 00010A63
@0E 0000CE36
@0F 00008216
@10 00002C52
@11 FFFFD3ED
@12 FFFF800C
@13 FFFF3766
@14 FFFEFFB4
@15 FFFEDD44
@16 FFFED2A1
@17 FFFEE064
@18 FFFF052F
@19 FFFF3DCC
@1A FFFF8576
@1B FFFFD63E
@1C 0000298A
@1D 0000789E
@1E 0000BD26
@1F 0000F1BA
@20 00011248
@21 00011C64
@22 00010F7B
@23 0000ECD1
@24 0000B76A
@25 000073C4
@26 00002776
@27 FFFFD8BC
@28 FFFF8DF4
@29 FFFF4D19
@2A FFFF1B4C
@2B FFFEFC6B
@2C FFFEF2C3
@2D FFFEFEE8
@2E FFFF1FA9
@2F FFFF5231
@30 FFFF9243
@31 FFFFDA94
@32 0000253F
@33 00006C39
@34 0000A9D4
@35 0000D92D
@36 0000F697
@37 0000FFDB
@38 0000F468
@39 0000D55A
@3A 0000A55C
@3B 00006872
@3C 000023A1
@3D FFFFDC86
@3E FFFF98E0
@3F FFFF5E1D
