@00 0002C2A9
@01 FFFD4076
@02 FFF80372
@03 FFF37730
@04 FFEFF80F
@05 FFEDCBE5
@06 FFED1C95
@07 FFEDF4EA
@08 FFF03FFC
@09 FFF3CB2E
@0A FFF84A7D
@0B FFFD5EE2
@0C 00029E26
@0D 00079B8A
@0E 000BF094
@0F 000F4546
@10 00115717
@11 0011FE1F
@12 00113014
@13 000F00DE
@14 000BA0B3
@15 000757FA
@16 00028137
@17 FFFD819B
@18 FFF8C0BE
@19 FFF4A03E
@1A FFF173EF
@1B FFEF7B34
@1C FFEEDC13
@1D FFEFA059
@1E FFF1B510
@1F FFF4EC4B
@20 FFF90112
@21 FFFD9D28
@22 00026028
@23 0006E763
@24 000AD5D8
@25 000DDBAC
@26 000FBC7D
@27 00105413
@28 000F9917
@29 000D9D99
@2A 000A8D5C
@2B 0006AA14
@2C 000245E7
@2D FFFDBCAA
@2E FFF96C60
@2F FFF5ADA1
@30 FFF2CC7E
@31 FFF1027D
@32 FFF0721E
@33 FFF12442
@34 FFF307B5
@35 FFF5F2C6
@36 FFF9A6DC
@37 FFFDD5B5
@38 000227D8
@39 000643B7
@3A 0009D4EF
@3B 000C930B
@3C 000E4744
@3D 000ED0BE
@3E 000E2706
@3F 000C5A83
