@00 00274F
@01 FFDA3A
@02 FF9600
@03 FF5F43
@04 FF3948
@05 FF25CA
@06 FF24F5
@07 FF3582
@08 FF54E4
@09 FF7F98
@0A FFB175
@0B FFE60C
@0C 001909
@0D 004681
@0E 006B3E
@0F 0084F2
@10 009257
@11 009334
@12 008853
@13 00735E
@14 0056AE
@15 003512
@16 00118C
@17 FFEF10
@18 FFD04B
@19 FFB76F
@1A FFA60E
@1B FF9D08
@1C FF9C81
@1D FFA3EE
@1E FFB228
@1F FFC594
