@00 FFFE1694
@01 FFFD8785
@02 FFFD2A53
@03 FFFD072F
@04 FFFD21A9
@05 FFFD7854
@06 FFFE04D6
@07 FFFEBC5E
@08 FFFF9079
@09 00007030
@0A 0001496A
@0B 00020A5B
@0C 0002A2FE
@0D 00030667
@0E 00032BD9
@0F 00030F8C
@10 0002B306
@11 00021D13
@12 0001593F
@13 000076F8
@14 FFFF8856
@15 FFFEA0A8
@16 FFFDD2E8
@17 FFFD302A
@18 FFFCC635
@19 FFFC9E55
@1A FFFCBC92
@1B FFFD1F44
@1C FFFDBF2C
@1D FFFE8FF7
@1E FFFF8130
@1F 00007F8C
@20 00017675
@21 000251B3
@22 0002FF14
@23 00036FEE
@24 00039A5A
@25 00037A12
@26 000310DD
@27 00026677
@28 00018806
@29 00008712
@2A FFFF7829
@2B FFFE7139
@2C FFFD87C9
@2D FFFCCF37
@2E FFFC571F
@2F FFFC2A06
@30 FFFC4C75
@31 FFFCBC84
@32 FFFD71F3
@33 FFFE5EC1
@34 FFFF7040
@35 0000908F
@36 0001A858
@37 0002A0B3
@38 00036506
@39 0003E4BB
@3A 000414A2
@3B 0003EFEE
@3C 000378AA
@3D 0002B7A1
@3E 0001BBBD
@3F 000098DE
