@00 000047
@01 000071
@02 000091
@03 0000A6
@04 0000AD
@05 0000A7
@06 000093
@07 000073
@08 000049
@09 000019
@0A FFFFE7
@0B FFFFB6
@0C FFFF8C
@0D FFFF6A
@0E FFFF55
@0F FFFF4D
@10 FFFF54
@11 FFFF68
@12 FFFF8A
@13 FFFFB5
@14 FFFFE6
@15 00001A
@16 00004C
@17 000078
@18 00009B
@19 0000B1
@1A 0000B9
@1B 0000B2
@1C 00009D
@1D 00007A
@1E 00004E
@1F 00001B
@20 FFFFE5
@21 FFFFB1
@22 FFFF84
@23 FFFF60
@24 FFFF49
@25 FFFF41
@26 FFFF48
@27 FFFF5E
@28 FFFF82
@29 FFFFB0
@2A FFFFE4
@2B 00001C
@2C 000051
@2D 000080
@2E 0000A5
@2F 0000BD
@30 0000C6
@31 0000BE
@32 0000A7
@33 000083
@34 000053
@35 00001D
@36 FFFFE3
@37 FFFFAC
@38 FFFF7B
@39 FFFF55
@3A FFFF3C
@3B FFFF33
@3C FFFF3B
@3D FFFF53
@3E FFFF79
@3F FFFFAA
