@00 000817E2
@01 000CD09D
@02 00108915
@03 0012F17C
@04 0013D4AB
@05 00131CAB
@06 0010D4CE
@07 000D2909
@08 000862AC
@09 0002E2B0
@0A FFFD1A06
@0B FFF7808A
@0C FFF28B53
@0D FFEEA327
@0E FFEC1BD3
@0F FFEB2D2F
@10 FFEBEE4D
@11 FFEE5352
@12 FFF22E1C
@13 FFF731B1
@14 FFFCF842
@15 00030B36
@16 0008ECAE
@17 000E21B1
@18 00123C33
@19 0014E42D
@1A 0015DEF1
@1B 0015143D
@1C 0012907B
@1D 000E841B
@1E 00093FEC
@1F 00032EDC
@20 FFFCCD7A
@21 FFF69FFC
@22 FFF12794
@23 FFECD7DF
@24 FFEA0D5F
@25 FFE905C0
@26 FFE9DA8C
@27 FFEC7EBF
@28 FFF0BF82
@29 FFF647F5
@2A FFFCA7C7
@2B 00035C1A
@2C 0009DA02
@2D 000F99BC
@2E 001421C3
@2F 001710D6
@30 0018261B
@31 001746AE
@32 0014802E
@33 001007FC
@34 000A3744
@35 0003840A
@36 FFFC77D9
@37 FFF5A4B8
@38 FFEF9963
@39 FFEAD5A0
@3A FFE7BFB9
@3B FFE69BEE
@3C FFE78693
@3D FFEA7169
@3E FFEF245D
@3F FFF541BC
