@00 FFBCF8
@01 FFE963
@02 001645
@03 00400A
@04 006378
@05 007DEF
@06 008D96
@07 00917D
@08 0089A8
@09 00770B
@0A 005B6A
@0B 003938
@0C 001358
@0D FFECE8
@0E FFC8FC
@0F FFAA5F
@10 FF935F
@11 FF85A3
@12 FF8207
@13 FF8897
@14 FF988D
@15 FFB06C
@16 FFCE1B
@17 FFEF1B
@18 0010B4
@19 003035
@1A 004B25
@1B 005F78
@1C 006BB3
@1D 006F09
@1E 006966
@1F 005B6F
@20 00466E
@21 002C37
@22 000EFE
@23 FFF129
@24 FFD51E
@25 FFBD13
@26 FFAAE0
@27 FF9FDC
@28 FF9CC5
@29 FFA1B4
@2A FFAE1C
@2B FFC0DA
@2C FFD851
@2D FFF288
@2E 000D59
@2F 00269A
@30 003C4E
@31 004CC7
@32 0056CB
@33 0059AA
@34 005548
@35 004A20
@36 003935
@37 0023FB
@38 000C39
@39 FFF3E1
@3A FFDCEA
@3B FFC925
@3C FFBA1B
@3D FFB0EE
@3E FFAE41
@3F FFB231
