@00 0B9903
@01 0B48D5
@02 0AAC5F
@03 09CB32
@04 08B01C
@05 07688A
@06 0603C0
@07 0491FF
@08 03239C
@09 01C81C
@0A 008D60
@0B FF7EEC
@0C FEA55E
@0D FE060E
@0E FDA2E1
@0F FD7A5E
@10 FD87E7
@11 FDC42D
@12 FE25C0
@13 FEA1C4
@14 FF2CAB
@15 FFBAF8
@16 0041F6
@17 00B857
@18 0116B9
@19 015801
@1A 01798A
@1B 017B29
@1C 015F06
@1D 012953
@1E 00DFDA
@1F 00897D
@20 002DA7
@21 FFD3B7
@22 FF827B
@23 FF3FB6
@24 FF0FC2
@25 FEF54F
@26 FEF147
@27 FF02D5
@28 FF2785
@29 FF5B8D
@2A FF9A24
@2B FFDDE9
@2C 002153
@2D 005F21
@2E 0092BB
@2F 00B884
@30 00CE1A
@31 00D273
@32 00C5EB
@33 00AA26
@34 0081EB
@35 0050DF
@36 001B32
@37 FFE54C
@38 FFB370
@39 FF896A
@3A FF6A46
@3B FF581C
@3C FF53ED
@3D FF5D97
@3E FF73E5
@3F FF94A9
