@00 00002B
@01 00000F
@02 FFFFF1
@03 FFFFD5
@04 FFFFBC
@05 FFFFA8
@06 FFFF9C
@07 FFFF97
@08 FFFF9B
@09 FFFFA8
@0A FFFFBB
@0B FFFFD4
@0C FFFFF1
@0D 00000F
@0E 00002C
@0F 000045
@10 000059
@11 000065
@12 000069
@13 000065
@14 000059
@15 000045
@16 00002C
@17 00000F
@18 FFFFF1
@19 FFFFD4
@1A FFFFBA
@1B FFFFA7
@1C FFFF9A
@1D FFFF96
@1E FFFF9A
@1F FFFFA6
@20 FFFFBA
@21 FFFFD4
@22 FFFFF1
@23 00000F
@24 00002D
@25 000046
@26 00005A
@27 000067
@28 00006C
@29 000067
@2A 00005B
@2B 000047
@2C 00002D
@2D 00000F
@2E FFFFF1
@2F FFFFD3
@30 FFFFB9
@31 FFFFA5
@32 FFFF98
@33 FFFF93
@34 FFFF97
@35 FFFFA4
@36 FFFFB8
@37 FFFFD3
@38 FFFFF0
@39 000010
@3A 00002E
@3B 000048
@3C 00005D
@3D 00006A
@3E 00006E
@3F 00006A
