@00 FFF7E4
@01 FFF788
@02 FFF7DB
@03 FFF8D8
@04 FFFA6B
@05 FFFC73
@06 FFFEC8
@07 000139
@08 000393
@09 0005A5
@0A 000745
@0B 00084F
@0C 0008AE
@0D 000858
@0E 000755
@0F 0005B9
@10 0003A3
@11 000140
@12 FFFEC0
@13 FFFC57
@14 FFFA37
@15 FFF88E
@16 FFF77D
@17 FFF71C
@18 FFF773
@19 FFF87D
@1A FFFA23
@1B FFFC46
@1C FFFEB8
@1D 000148
@1E 0003C0
@1F 0005ED
@20 0007A1
@21 0008B9
@22 00091C
@23 0008C3
@24 0007B3
@25 000601
@26 0003D1
@27 000150
@28 FFFEB0
@29 FFFC28
@2A FFF9EE
@2B FFF82F
@2C FFF710
@2D FFF6AA
@2E FFF706
@2F FFF81D
@30 FFF9D9
@31 FFFC17
@32 FFFEA8
@33 000159
@34 0003F0
@35 000639
@36 000803
@37 000928
@38 000990
@39 000932
@3A 000815
@3B 00064E
@3C 000402
@3D 000160
@3E FFFE9F
@3F FFFBF7
