@00 FFFF2C
@01 FFFF0F
@02 FFFF05
@03 FFFF10
@04 FFFF2E
@05 FFFF5D
@06 FFFF99
@07 FFFFDD
@08 000023
@09 000066
@0A 0000A0
@0B 0000CD
@0C 0000E9
@0D 0000F2
@0E 0000E8
@0F 0000CB
@10 00009D
@11 000063
@12 000022
@13 FFFFDE
@14 FFFF9E
@15 FFFF65
@16 FFFF3A
@17 FFFF1F
@18 FFFF16
@19 FFFF20
@1A FFFF3C
@1B FFFF68
@1C FFFFA0
@1D FFFFDF
@1E 000021
@1F 00005F
@20 000096
@21 0000C0
@22 0000DA
@23 0000E2
@24 0000D8
@25 0000BD
@26 000093
@27 00005D
@28 000020
@29 FFFFE0
@2A FFFFA4
@2B FFFF6F
@2C FFFF47
@2D FFFF2D
@2E FFFF25
@2F FFFF2F
@30 FFFF49
@31 FFFF72
@32 FFFFA6
@33 FFFFE1
@34 00001F
@35 000059
@36 00008C
@37 0000B3
@38 0000CC
@39 0000D4
@3A 0000CA
@3B 0000B1
@3C 000089
@3D 000057
@3E 00001E
@3F FFFFE2
