@00 000B0453
@01 000A9E78
@02 00095A5F
@03 00075061
@04 0004A92E
@05 00019AA2
@06 FFFE637F
@07 FFFB466A
@08 FFF88484
@09 FFF6581C
@0A FFF4EFDA
@0B FFF46ADC
@0C FFF4D60A
@0D FFF62AD8
@0E FFF84FAA
@0F FFFB19B5
@10 FFFE505A
@11 0001B19B
@12 0004F76D
@13 0007DD59
@14 000A261C
@15 000BA0AD
@16 000C2C5D
@17 000BBBA3
@18 000A5563
@19 0008148D
@1A 0005261E
@1B 0001C59A
@1C FFFE385B
@1D FFFAC7FD
@1E FFF7BC6E
@1F FFF5560C
@20 FFF3C859
@21 FFF335A8
@22 FFF3AC2D
@23 FFF524A6
@24 FFF782BF
@25 FFFA9733
@26 FFFE2376
@27 0001DEAD
@28 00057B81
@29 0008AE65
@2A 000B33BC
@2B 000CD56F
@2C 000D6F73
@2D 000CF2E2
@2E 000B6760
@2F 0008EAB2
@30 0005AE82
@31 0001F484
@32 FFFE0940
@33 FFFA3DEF
@34 FFF6E1EB
@35 FFF43C34
@36 FFF28596
@37 FFF1E3E7
@38 FFF266C8
@39 FFF40631
@3A FFF6A2D9
@3B FFFA0896
@3C FFFDF267
@3D 00020FEF
@3E 00060BE1
@3F 000992EB
