@00 FFCFC84E
@01 FFD5776A
@02 FFDEB00C
@03 FFEABCFD
@04 FFF8ABCD
@05 00075FD2
@06 0015A8CB
@07 00225B63
@08 002C69A4
@09 0032F945
@0A 0035761D
@0B 00339F0D
@0C 002D8C5E
@0D 0023AEE7
@0E 0016C803
@0F 0007DADA
@10 FFF8181F
@11 FFE8C5E0
@12 FFDB2541
@13 FFD05847
@14 FFC949D4
@15 FFC699D6
@16 FFC88F3C
@17 FFCF110C
@18 FFD9A71A
@19 FFE78293
@1A FFF78DA2
@1B 00088118
@1C 0018FE66
@1D 0027ABCD
@1E 00335097
@1F 003AEF00
@20 003DD9A8
@21 003BC2D5
@22 0034C417
@23 00295DAA
@24 001A6D76
@25 00091E56
@26 FFF6D0DE
@27 FFE4FF6D
@28 FFD51FC0
@29 FFC88479
@2A FFC0410A
@2B FFBD125C
@2C FFBF4E2D
@2D FFC6DA8D
@2E FFD32E50
@2F FFE35A8F
@30 FFF61C92
@31 0009F6CC
@32 001D4F07
@33 002E8F56
@34 003C472A
@35 004549EC
@36 0048C87C
@37 00466387
@38 003E350B
@39 0030D029
@3A 001F3716
@3B 000AC7E5
@3C FFF52183
@3D FFE00305
@3E FFCD27CB
@3F FFBE235A
