@00 FFF337
@01 FFEBEB
@02 FFE64B
@03 FFE2C7
@04 FFE1A6
@05 FFE2FB
@06 FFE6A4
@07 FFEC54
@08 FFF390
@09 FFFBC1
@0A 00043B
@0B 000C4F
@0C 001357
@0D 0018C3
@0E 001C26
@0F 001D3D
@10 001BF6
@11 00186F
@12 0012F5
@13 000BFC
@14 000418
@15 FFFBEC
@16 FFF422
@17 FFED5B
@18 FFE820
@19 FFE4DC
@1A FFE3CF
@1B FFE50A
@1C FFE870
@1D FFEDB8
@1E FFF471
@1F FFFC0D
@20 0003EF
@21 000B73
@22 0011FD
@23 001709
@24 001A31
@25 001B35
@26 001A06
@27 0016BF
@28 0011A6
@29 000B29
@2A 0003D0
@2B FFFC33
@2C FFF4F2
@2D FFEEA1
@2E FFE9C1
@2F FFE6B5
@30 FFE5B8
@31 FFE6DD
@32 FFEA07
@33 FFEEF3
@34 FFF538
@35 FFFC51
@36 0003AC
@37 000AAF
@38 0010CA
@39 001580
@3A 001873
@3B 001967
@3C 00184D
@3D 00153E
@3E 00107C
@3F 000A6D
