@00 FFFE67
@01 FFFB54
@02 FFF89E
@03 FFF67E
@04 FFF522
@05 FFF4A6
@06 FFF515
@07 FFF668
@08 FFF884
@09 FFFB3E
@0A FFFE5E
@0B 0001A3
@0C 0004CA
@0D 000792
@0E 0009BF
@0F 000B24
@10 000BA3
@11 000B31
@12 0009D5
@13 0007AC
@14 0004E1
@15 0001AD
@16 FFFE52
@17 FFFB17
@18 FFF83E
@19 FFF603
@1A FFF494
@1B FFF412
@1C FFF487
@1D FFF5EB
@1E FFF822
@1F FFFB00
@20 FFFE48
@21 0001B9
@22 000509
@23 0007F4
@24 000A3E
@25 000BB5
@26 000C3B
@27 000BC3
@28 000A56
@29 000810
@2A 000521
@2B 0001C3
@2C FFFE3C
@2D FFFAD6
@2E FFF7D8
@2F FFF57F
@30 FFF3FF
@31 FFF375
@32 FFF3F0
@33 FFF567
@34 FFF7BB
@35 FFFABE
@36 FFFE32
@37 0001CF
@38 00054B
@39 00085D
@3A 000AC5
@3B 000C50
@3C 000CDC
@3D 000C5E
@3E 000ADF
@3F 00087B
