@00 FFFF6649
@01 FFFE3CCF
@02 FFFD34CB
@03 FFFC6421
@04 FFFBDC70
@05 FFFBA999
@06 FFFBD0B0
@07 FFFC4F85
@08 FFFD1CBB
@09 FFFE2875
@0A FFFF5D91
@0B 0000A353
@0C 0001DF5B
@0D 0002F7CD
@0E 0003D568
@0F 00046577
@10 00049B63
@11 000471C9
@12 0003EB02
@13 00031107
@14 0001F4B1
@15 0000AC76
@16 FFFF529B
@17 FFFE031E
@18 FFFCD975
@19 FFFBEE4B
@1A FFFB5578
@1B FFFB1C54
@1C FFFB4890
@1D FFFBD7AA
@1E FFFCBF09
@1F FFFDECC5
@20 FFFF4908
@21 0000B7F2
@22 00021BCF
@23 0003577F
@24 000450DC
@25 0004F2DC
@26 00052F5E
@27 0005005E
@28 0004688C
@29 00037328
@2A 00023334
@2B 0000C1F7
@2C FFFF3D03
@2D FFFDC3D3
@2E FFFC7544
@2F FFFB6D0D
@30 FFFAC172
@31 FFFA816B
@32 FFFAB351
@33 FFFB5445
@34 FFFC5854
@35 FFFDAB59
@36 FFFF3287
@37 0000CE8B
@38 00025E0A
@39 0003C054
@3A 0004D815
@3B 00058DB8
@3C 0005D16D
@3D 00059C7F
@3E 0004F1FE
@3F 0003DE96
