@00 FFFC4D75
@01 0003B6EA
@02 000AE488
@03 0011402F
@04 0016436E
@05 001982A1
@06 001AB5EC
@07 0019BF6B
@08 0016AE07
@09 0011BCA8
@0A 000B4DD2
@0B 0003E401
@0C FFFC1757
@0D FFF4896E
@0E FFEDD846
@0F FFE89166
@10 FFE5262B
@11 FFE3E24E
@12 FFE4E55C
@13 FFE81FC0
@14 FFED5391
@15 FFF4192D
@16 FFFBE744
@17 00041DB3
@18 000C1253
@19 00131EBA
@1A 0018ADD0
@1B 001C481B
@1C 001D9DC0
@1D 001C8D60
@1E 00192748
@1F 0013AC91
@20 000C8A4E
@21 00045115
@22 FFFBA99A
@23 FFF34724
@24 FFEBD91C
@25 FFE5FCB5
@26 FFE22FF7
@27 FFE0C733
@28 FFE1E5B9
@29 FFE57A84
@2A FFEB4115
@2B FFF2C68C
@2C FFFB7287
@2D 0004932E
@2E 000D6B6D
@2F 00154237
@30 001B71A4
@31 001F749D
@32 0020F205
@33 001FC46C
@34 001BFD99
@35 0015E5A6
@36 000DF5AC
@37 0004CE63
@38 FFFB2B78
@39 FFF1D485
@3A FFE98CF9
@3B FFE3041D
@3C FFDEC6A5
@3D FFDD32E0
@3E FFDE7090
@3F FFE26D28
