@00 FFFE1A7E
@01 FFFE02DC
@02 FFFE1474
@03 FFFE4E5B
@04 FFFEAC58
@05 FFFF2733
@06 FFFFB545
@07 00004B32
@08 0000DCDA
@09 00015E4F
@0A 0001C4CE
@0B 000207A5
@0C 000220EE
@0D 00020E17
@0E 0001D01D
@0F 00016B84
@10 0000E806
@11 00004FFA
@12 FFFFAF87
@13 FFFF13A7
@14 FFFE8920
@15 FFFE1B75
@16 FFFDD3F3
@17 FFFDB8E7
@18 FFFDCD14
@19 FFFE0F69
@1A FFFE7B10
@1B FFFF07C2
@1C FFFFAA6F
@1D 00005617
@1E 0000FCD8
@1F 00019106
@20 00020653
@21 000252CC
@22 00026FB4
@23 00025A19
@24 00021321
@25 00019FF9
@26 0001097C
@27 00005B82
@28 FFFFA3F0
@29 FFFEF1A1
@2A FFFE5332
@2B FFFDD5CB
@2C FFFD840F
@2D FFFD6530
@2E FFFD7C51
@2F FFFDC838
@30 FFFE4357
@31 FFFEE438
@32 FFFF9E32
@33 00006266
@34 000120F4
@35 0001CA41
@36 0002503D
@37 0002A78B
@38 0002C87E
@39 0002AFBE
@3A 00025E9D
@3B 0001DB0A
@3C 00012F27
@3D 0000687A
@3E FFFF96E6
@3F FFFECB60
