@00 00005D
@01 000049
@02 00002E
@03 000010
@04 FFFFF0
@05 FFFFD2
@06 FFFFB7
@07 FFFFA2
@08 FFFF95
@09 FFFF90
@0A FFFF94
@0B FFFFA1
@0C FFFFB6
@0D FFFFD1
@0E FFFFF0
@0F 000010
@10 00002F
@11 00004A
@12 000060
@13 00006D
@14 000072
@15 00006E
@16 000060
@17 00004B
@18 000030
@19 000010
@1A FFFFF0
@1B FFFFD0
@1C FFFFB4
@1D FFFF9F
@1E FFFF91
@1F FFFF8C
@20 FFFF90
@21 FFFF9E
@22 FFFFB4
@23 FFFFCF
@24 FFFFEF
@25 000011
@26 000031
@27 00004D
@28 000063
@29 000071
@2A 000076
@2B 000072
@2C 000064
@2D 00004E
@2E 000032
@2F 000011
@30 FFFFEF
@31 FFFFCE
@32 FFFFB1
@33 FFFF9B
@34 FFFF8C
@35 FFFF87
@36 FFFF8C
@37 FFFF9A
@38 FFFFB0
@39 FFFFCD
@3A FFFFEF
@3B 000011
@3C 000033
@3D 000050
@3E 000068
@3F 000076
