@00 05D2FF
@01 05C877
@02 05B38B
@03 059483
@04 056BC8
@05 0539E4
@06 04FF7F
@07 04BD5E
@08 04745D
@09 04256B
@0A 03D18B
@0B 0379CA
@0C 031F3E
@0D 02C302
@0E 02662F
@0F 0209DA
@10 01AF0F
@11 0156CD
@12 010201
@13 00B188
@14 006623
@15 00207D
@16 FFE126
@17 FFA890
@18 FF770E
@19 FF4CD9
@1A FF2A09
@1B FF0E99
@1C FEFA68
@1D FEED3B
@1E FEE6BE
@1F FEE688
