@00 FFBD7000
@01 FFE98D1B
@02 00161ADB
@03 003F8CAA
@04 0062B015
@05 007CEA6B
@06 008C68BF
@07 00903EE2
@08 00887372
@09 0075F886
@0A 005A921C
@0B 0038ACB6
@0C 001327DE
@0D FFED1907
@0E FFC98BC7
@0F FFAB447D
@10 FF948A2D
@11 FF86FB89
@12 FF837262
@13 FF89F749
@14 FF99C606
@15 FFB1621A
@16 FFCEB954
@17 FFEF516A
@18 00107CB7
@19 002F91D4
@1A 004A2194
@1B 005E272B
@1C 006A2ECF
@1D 006D700A
@1E 0067D9D8
@1F 005A1003
@20 00455A2E
@21 002B8640
@22 000EC0CC
@23 FFF166C6
@24 FFD5D457
@25 FFBE34CC
@26 FFAC5758
@27 FFA18C13
@28 FF9E8BBE
@29 FFA36C14
@2A FFAFA147
@2B FFC20C52
@2C FFD914BC
@2D FFF2CB85
@2E 000D1448
@2F 0025D13D
@30 003B0E76
@31 004B2903
@32 0054EEE0
@33 0057B551
@34 0053640D
@35 00487486
@36 0037E595
@37 002324BB
@38 000BEEF6
@39 FFF42BC9
@3A FFDDC584
@3B FFCA8206
@3C FFBBDF12
@3D FFB2F504
@3E FFB0621A
@3F FFB43FE0
