@00 00036F
@01 0003ED
@02 00041A
@03 0003F1
@04 000377
@05 0002B4
@06 0001B8
@07 000097
@08 FFFF68
@09 FFFE45
@0A FFFD43
@0B FFFC7A
@0C FFFBF9
@0D FFFBCA
@0E FFFBF4
@0F FFFC71
@10 FFFD39
@11 FFFE3C
@12 FFFF65
@13 00009C
@14 0001C7
@15 0002CF
@16 00039E
@17 000423
@18 000452
@19 000428
@1A 0003A7
@1B 0002DA
@1C 0001D0
@1D 00009F
@1E FFFF60
@1F FFFE2D
@20 FFFD1E
@21 FFFC49
@22 FFFBC1
@23 FFFB91
@24 FFFBBC
@25 FFFC40
@26 FFFD13
@27 FFFE24
@28 FFFF5C
@29 0000A4
@2A 0001E0
@2B 0002F6
@2C 0003D0
@2D 00045C
@2E 00048D
@2F 000461
@30 0003D9
@31 000301
@32 0001E9
@33 0000A8
@34 FFFF58
@35 FFFE14
@36 FFFCF6
@37 FFFC17
@38 FFFB87
@39 FFFB54
@3A FFFB82
@3B FFFC0D
@3C FFFCEB
@3D FFFE0B
@3E FFFF54
@3F 0000AD
