@00 FFFC12
@01 FFFB52
@02 FFFAA1
@03 FFFA04
@04 FFF97B
@05 FFF90A
@06 FFF8B5
@07 FFF87D
@08 FFF867
@09 FFF875
@0A FFF8AC
@0B FFF90D
@0C FFF99B
@0D FFFA58
@0E FFFB46
@0F FFFC65
@10 FFFDB4
@11 FFFF31
@12 0000D9
@13 0002A7
@14 000494
@15 000698
@16 0008AA
@17 000ABE
@18 000CC8
@19 000EB9
@1A 001084
@1B 001219
@1C 001367
@1D 001460
@1E 0014F4
@1F 001516
