@00 FFFECB60
@01 FFFF96E6
@02 0000687A
@03 00012F27
@04 0001DB0A
@05 00025E9D
@06 0002AFBE
@07 0002C87E
@08 0002A78B
@09 0002503D
@0A 0001CA41
@0B 000120F4
@0C 00006266
@0D FFFF9E32
@0E FFFEE438
@0F FFFE4357
@10 FFFDC838
@11 FFFD7C51
@12 FFFD6530
@13 FFFD840F
@14 FFFDD5CB
@15 FFFE5332
@16 FFFEF1A1
@17 FFFFA3F0
@18 00005B82
@19 0001097C
@1A 00019FF9
@1B 00021321
@1C 00025A19
@1D 00026FB4
@1E 000252CC
@1F 00020653
@20 00019106
@21 0000FCD8
@22 00005617
@23 FFFFAA6F
@24 FFFF07C2
@25 FFFE7B10
@26 FFFE0F69
@27 FFFDCD14
@28 FFFDB8E7
@29 FFFDD3F3
@2A FFFE1B75
@2B FFFE8920
@2C FFFF13A7
@2D FFFFAF87
@2E 00004FFA
@2F 0000E806
@30 00016B84
@31 0001D01D
@32 00020E17
@33 000220EE
@34 000207A5
@35 0001C4CE
@36 00015E4F
@37 0000DCDA
@38 00004B32
@39 FFFFB545
@3A FFFF2733
@3B FFFEAC58
@3C FFFE4E5B
@3D FFFE1474
@3E FFFE02DC
@3F FFFE1A7E
