@00 FFE8DCB1
@01 FFF13F69
@02 FFFAEB9B
@03 00051B08
@04 000EFABB
@05 0017BC11
@06 001EA59B
@07 00232266
@08 0024CE7F
@09 00237F96
@0A 001F4905
@0B 00187AE4
@0C 000F9C26
@0D 0005602A
@0E FFFA98A2
@0F FFF024CB
@10 FFE6DF6B
@11 FFDF8CF7
@12 FFDACB58
@13 FFD904AB
@14 FFDA6611
@15 FFDEDB5C
@16 FFE61005
@17 FFEF755B
@18 FFFA4D7F
@19 0005BA59
@1A 0010CF54
@1B 001AA471
@1C 0022693C
@1D 002775FE
@1E 002959D9
@1F 0027E48D
@20 00232B1D
@21 001B86D9
@22 00118ED9
@23 00060C60
@24 FFF9EB0B
@25 FFEE2600
@26 FFE3B3AF
@27 FFDB71B3
@28 FFD61284
@29 FFD40E74
@2A FFD5993D
@2B FFDA9D05
@2C FFE2BB53
@2D FFED53E8
@2E FFF9910F
@2F 00067862
@30 0012FEC1
@31 001E1DDD
@32 0026E9A3
@33 002CA3BA
@34 002ECB8E
@35 002D297C
@36 0027D433
@37 001F2FC8
@38 0013E679
@39 0006DBA1
@3A FFF919EE
@3B FFEBBE19
@3C FFDFDFFA
@3D FFD67BAC
@3E FFD05CB7
@3F FFCE0CE7
