@00 FF94A9
@01 FF73E5
@02 FF5D97
@03 FF53ED
@04 FF581C
@05 FF6A46
@06 FF896A
@07 FFB370
@08 FFE54C
@09 001B32
@0A 0050DF
@0B 0081EB
@0C 00AA26
@0D 00C5EB
@0E 00D273
@0F 00CE1A
@10 00B884
@11 0092BB
@12 005F21
@13 002153
@14 FFDDE9
@15 FF9A24
@16 FF5B8D
@17 FF2785
@18 FF02D5
@19 FEF147
@1A FEF54F
@1B FF0FC2
@1C FF3FB6
@1D FF827B
@1E FFD3B7
@1F 002DA7
@20 00897D
@21 00DFDA
@22 012953
@23 015F06
@24 017B29
@25 01798A
@26 015801
@27 0116B9
@28 00B857
@29 0041F6
@2A FFBAF8
@2B FF2CAB
@2C FEA1C4
@2D FE25C0
@2E FDC42D
@2F FD87E7
@30 FD7A5E
@31 FDA2E1
@32 FE060E
@33 FEA55E
@34 FF7EEC
@35 008D60
@36 01C81C
@37 03239C
@38 0491FF
@39 0603C0
@3A 07688A
@3B 08B01C
@3C 09CB32
@3D 0AAC5F
@3E 0B48D5
@3F 0B9903
