@00 FEEC19
@01 FEF6E6
@02 FF0651
@03 FF19B4
@04 FF3064
@05 FF49B0
@06 FF64E6
@07 FF815A
@08 FF9E63
@09 FFBB62
@0A FFD7C1
@0B FFF2F9
@0C 000C91
@0D 002420
@0E 00394F
@0F 004BD8
@10 005B87
@11 00683C
@12 0071E6
@13 007887
@14 007C31
@15 007D03
@16 007B29
@17 0076DD
@18 00705F
@19 0067F8
@1A 005DF8
@1B 0052B0
@1C 004673
@1D 003996
@1E 002C68
@1F 001F38
