@00 FFC594
@01 FFB228
@02 FFA3EE
@03 FF9C81
@04 FF9D08
@05 FFA60E
@06 FFB76F
@07 FFD04B
@08 FFEF10
@09 00118C
@0A 003512
@0B 0056AE
@0C 00735E
@0D 008853
@0E 009334
@0F 009257
@10 0084F2
@11 006B3E
@12 004681
@13 001909
@14 FFE60C
@15 FFB175
@16 FF7F98
@17 FF54E4
@18 FF3582
@19 FF24F5
@1A FF25CA
@1B FF3948
@1C FF5F43
@1D FF9600
@1E FFDA3A
@1F 00274F
