@00 000DA3
@01 0008A0
@02 0002F3
@03 FFFD10
@04 FFF772
@05 FFF28C
@06 FFEEC4
@07 FFEC66
@08 FFEBA0
@09 FFEC81
@0A FFEEF4
@0B FFF2C4
@0C FFF7A0
@0D FFFD24
@0E 0002DA
@0F 00084E
@10 000D0F
@11 0010BB
@12 001308
@13 0013C9
@14 0012EE
@15 00108E
@16 000CDA
@17 000822
@18 0002C7
@19 FFFD3B
@1A FFF7EF
@1B FFF351
@1C FFEFC0
@1D FFED83
@1E FFECC9
@1F FFED9C
@20 FFEFEB
@21 FFF384
@22 FFF81A
@23 FFFD4D
@24 0002B1
@25 0007D7
@26 000C53
@27 000FCA
@28 0011F6
@29 0012AC
@2A 0011DF
@2B 000FA1
@2C 000C22
@2D 0007AD
@2E 0002A0
@2F FFFD62
@30 FFF862
@31 FFF406
@32 FFF0A7
@33 FFEE8A
@34 FFEDD9
@35 FFEEA1
@36 FFF0CF
@37 FFF434
@38 FFF889
@39 FFFD73
@3A 00028B
@3B 000768
@3C 000BA5
@3D 000EEC
@3E 0010FA
@3F 0011A6
