@00 FFB43FE0
@01 FFB0621A
@02 FFB2F504
@03 FFBBDF12
@04 FFCA8206
@05 FFDDC584
@06 FFF42BC9
@07 000BEEF6
@08 002324BB
@09 0037E595
@0A 00487486
@0B 0053640D
@0C 0057B551
@0D 0054EEE0
@0E 004B2903
@0F 003B0E76
@10 0025D13D
@11 000D1448
@12 FFF2CB85
@13 FFD914BC
@14 FFC20C52
@15 FFAFA147
@16 FFA36C14
@17 FF9E8BBE
@18 FFA18C13
@19 FFAC5758
@1A FFBE34CC
@1B FFD5D457
@1C FFF166C6
@1D 000EC0CC
@1E 002B8640
@1F 00455A2E
@20 005A1003
@21 0067D9D8
@22 006D700A
@23 006A2ECF
@24 005E272B
@25 004A2194
@26 002F91D4
@27 00107CB7
@28 FFEF516A
@29 FFCEB954
@2A FFB1621A
@2B FF99C606
@2C FF89F749
@2D FF837262
@2E FF86FB89
@2F FF948A2D
@30 FFAB447D
@31 FFC98BC7
@32 FFED1907
@33 001327DE
@34 0038ACB6
@35 005A921C
@36 0075F886
@37 00887372
@38 00903EE2
@39 008C68BF
@3A 007CEA6B
@3B 0062B015
@3C 003F8CAA
@3D 00161ADB
@3E FFE98D1B
@3F FFBD7000
