@00 000992EB
@01 00060BE1
@02 00020FEF
@03 FFFDF267
@04 FFFA0896
@05 FFF6A2D9
@06 FFF40631
@07 FFF266C8
@08 FFF1E3E7
@09 FFF28596
@0A FFF43C34
@0B FFF6E1EB
@0C FFFA3DEF
@0D FFFE0940
@0E 0001F484
@0F 0005AE82
@10 0008EAB2
@11 000B6760
@12 000CF2E2
@13 000D6F73
@14 000CD56F
@15 000B33BC
@16 0008AE65
@17 00057B81
@18 0001DEAD
@19 FFFE2376
@1A FFFA9733
@1B FFF782BF
@1C FFF524A6
@1D FFF3AC2D
@1E FFF335A8
@1F FFF3C859
@20 FFF5560C
@21 FFF7BC6E
@22 FFFAC7FD
@23 FFFE385B
@24 0001C59A
@25 0005261E
@26 0008148D
@27 000A5563
@28 000BBBA3
@29 000C2C5D
@2A 000BA0AD
@2B 000A261C
@2C 0007DD59
@2D 0004F76D
@2E 0001B19B
@2F FFFE505A
@30 FFFB19B5
@31 FFF84FAA
@32 FFF62AD8
@33 FFF4D60A
@34 FFF46ADC
@35 FFF4EFDA
@36 FFF6581C
@37 FFF88484
@38 FFFB466A
@39 FFFE637F
@3A 00019AA2
@3B 0004A92E
@3C 00075061
@3D 00095A5F
@3E 000A9E78
@3F 000B0453
