@00 FFFBD5
@01 FFFD5A
@02 FFFF17
@03 0000E9
@04 0002AB
@05 000437
@06 00056D
@07 000634
@08 00067A
@09 00063B
@0A 000579
@0B 000445
@0C 0002B7
@0D 0000EF
@0E FFFF11
@0F FFFD44
@10 FFFBAE
@11 FFFA71
@12 FFF9A5
@13 FFF95C
@14 FFF99E
@15 FFFA64
@16 FFFBA0
@17 FFFD38
@18 FFFF0B
@19 0000F5
@1A 0002CD
@1B 00046D
@1C 0005B3
@1D 000684
@1E 0006CE
@1F 00068B
@20 0005C0
@21 00047C
@22 0002DA
@23 0000FB
@24 FFFF05
@25 FFFD21
@26 FFFB77
@27 FFFA29
@28 FFF953
@29 FFF907
@2A FFF94C
@2B FFFA1C
@2C FFFB67
@2D FFFD14
@2E FFFEFF
@2F 000101
@30 0002F1
@31 0004A6
@32 0005FC
@33 0006D7
@34 000725
@35 0006DF
@36 00060A
@37 0004B6
@38 0002FF
@39 000107
@3A FFFEF8
@3B FFFCFC
@3C FFFB3D
@3D FFF9DE
@3E FFF8FE
@3F FFF8AE
