@00 FFFDB8
@01 FFFC69
@02 FFFB66
@03 FFFAC4
@04 FFFA8F
@05 FFFACA
@06 FFFB71
@07 FFFC76
@08 FFFDC2
@09 FFFF3C
@0A 0000C4
@0B 00023A
@0C 000380
@0D 00047C
@0E 00051B
@0F 00054F
@10 000515
@11 000472
@12 000374
@13 00022F
@14 0000BF
@15 FFFF41
@16 FFFDD5
@17 FFFC96
@18 FFFBA0
@19 FFFB06
@1A FFFAD3
@1B FFFB0C
@1C FFFBAB
@1D FFFCA2
@1E FFFDDF
@1F FFFF46
@20 0000BA
@21 00021D
@22 000354
@23 000443
@24 0004DA
@25 00050B
@26 0004D4
@27 000439
@28 000348
@29 000214
@2A 0000B6
@2B FFFF4B
@2C FFFDF0
@2D FFFCC2
@2E FFFBD8
@2F FFFB45
@30 FFFB15
@31 FFFB4B
@32 FFFBE2
@33 FFFCCD
@34 FFFDFA
@35 FFFF4F
@36 0000B1
@37 000203
@38 000329
@39 00040D
@3A 00049C
@3B 0004CB
@3C 000497
@3D 000403
@3E 00031E
@3F 0001F9
