@00 FFFFE24D
@01 00001DBA
@02 000056DE
@03 00008916
@04 0000B050
@05 0000C957
@06 0000D21C
@07 0000C9DE
@08 0000B13D
@09 00008A2B
@0A 000057C7
@0B 00001E1E
@0C FFFFE1D5
@0D FFFFA7CC
@0E FFFF74B7
@0F FFFF4CC1
@10 FFFF3330
@11 FFFF2A24
@12 FFFF3268
@13 FFFF4B62
@14 FFFF731D
@15 FFFFA671
@16 FFFFE141
@17 00001ED1
@18 00005A27
@19 00008E72
@1A 0000B76C
@1B 0000D1B5
@1C 0000DB19
@1D 0000D2C0
@1E 0000B941
@1F 00009096
@20 00005BF7
@21 00001F97
@22 FFFFE052
@23 FFFFA345
@24 FFFF6D66
@25 FFFF431F
@26 FFFF27EF
@27 FFFF1E22
@28 FFFF269E
@29 FFFF40CF
@2A FFFF6AB3
@2B FFFFA0FD
@2C FFFFDF58
@2D 000020C4
@2E 00005FF6
@2F 000097C9
@30 0000C3A9
@31 0000DFF1
@32 0000EA38
@33 0000E18A
@34 0000C676
@35 00009B0F
@36 000062BA
@37 000021F3
@38 FFFFDDEC
@39 FFFF9C25
@3A FFFF61F9
@3B FFFF3432
@3C FFFF16A1
@3D FFFF0BCD
@3E FFFF14BE
@3F FFFF30E4
