@00 0B9768
@01 0B4713
@02 0AAA55
@03 09C8CF
@04 08AD63
@05 076592
@06 0600B5
@07 048F20
@08 032132
@09 01C676
@0A 008CC4
@0B FF7F93
@0C FEA767
@0D FE0979
@0E FDA78B
@0F FD8001
@10 FD8E1B
@11 FDCA73
@12 FE2B88
@13 FEA67D
@14 FF2FCE
@15 FFBC18
@16 0040CA
@17 00B4C8
@18 0110E5
@19 01503B
@1A 017058
@1B 01713D
@1C 01552E
@1D 012069
@1E 00D8B1
@1F 0084CE
@20 002C00
@21 FFD56A
@22 FF8795
@23 FF47FA
@24 FF1AA8
@25 FF0210
@26 FEFEE7
@27 FF1039
@28 FF338B
@29 FF6521
@2A FFA05A
@2B FFE015
@2C 001F1A
@2D 005883
@2E 008815
@2F 00AA90
@30 00BDE0
@31 00C138
@32 00B513
@33 009B1D
@34 007602
@35 00492E
@36 001884
@37 FFE805
@38 FFBB85
@39 FF965B
@3A FF7B29
@3B FF6BAB
@3C FF689E
@3D FF71BD
@3E FF85D0
@3F FFA2CF
