@00 FFFECD
@01 FFFEDA
@02 FFFEFF
@03 FFFF39
@04 FFFF82
@05 FFFFD5
@06 00002B
@07 00007D
@08 0000C4
@09 0000FB
@0A 00011E
@0B 000129
@0C 00011C
@0D 0000F8
@0E 0000C1
@0F 00007A
@10 00002A
@11 FFFFD7
@12 FFFF87
@13 FFFF42
@14 FFFF0D
@15 FFFEEC
@16 FFFEE1
@17 FFFEED
@18 FFFF10
@19 FFFF46
@1A FFFF8A
@1B FFFFD8
@1C 000028
@1D 000075
@1E 0000B7
@1F 0000EB
@20 00010B
@21 000115
@22 000109
@23 0000E8
@24 0000B4
@25 000072
@26 000027
@27 FFFFD9
@28 FFFF8F
@29 FFFF4F
@2A FFFF1D
@2B FFFEFE
@2C FFFEF4
@2D FFFEFF
@2E FFFF20
@2F FFFF52
@30 FFFF92
@31 FFFFDA
@32 000025
@33 00006D
@34 0000AB
@35 0000DB
@36 0000FA
@37 000103
@38 0000F8
@39 0000D9
@3A 0000A8
@3B 00006A
@3C 000024
@3D FFFFDC
@3E FFFF97
@3F FFFF5A
