@00 FFFBF7
@01 FFFE9F
@02 000160
@03 000402
@04 00064E
@05 000815
@06 000932
@07 000990
@08 000928
@09 000803
@0A 000639
@0B 0003F0
@0C 000159
@0D FFFEA8
@0E FFFC17
@0F FFF9D9
@10 FFF81D
@11 FFF706
@12 FFF6AA
@13 FFF710
@14 FFF82F
@15 FFF9EE
@16 FFFC28
@17 FFFEB0
@18 000150
@19 0003D1
@1A 000601
@1B 0007B3
@1C 0008C3
@1D 00091C
@1E 0008B9
@1F 0007A1
@20 0005ED
@21 0003C0
@22 000148
@23 FFFEB8
@24 FFFC46
@25 FFFA23
@26 FFF87D
@27 FFF773
@28 FFF71C
@29 FFF77D
@2A FFF88E
@2B FFFA37
@2C FFFC57
@2D FFFEC0
@2E 000140
@2F 0003A3
@30 0005B9
@31 000755
@32 000858
@33 0008AE
@34 00084F
@35 000745
@36 0005A5
@37 000393
@38 000139
@39 FFFEC8
@3A FFFC73
@3B FFFA6B
@3C FFF8D8
@3D FFF7DB
@3E FFF788
@3F FFF7E4
