@00 0002D7
@01 0002F4
@02 0002D3
@03 000279
@04 0001EB
@05 000137
@06 00006A
@07 FFFF96
@08 FFFECC
@09 FFFE1B
@0A FFFD93
@0B FFFD3D
@0C FFFD21
@0D FFFD41
@0E FFFD99
@0F FFFE23
@10 FFFED2
@11 FFFF99
@12 000067
@13 00012C
@14 0001D7
@15 00025C
@16 0002AF
@17 0002CA
@18 0002AB
@19 000256
@1A 0001D0
@1B 000126
@1C 000064
@1D FFFF9C
@1E FFFEDD
@1F FFFE36
@20 FFFDB5
@21 FFFD65
@22 FFFD4A
@23 FFFD68
@24 FFFDBB
@25 FFFE3D
@26 FFFEE3
@27 FFFF9F
@28 000061
@29 00011B
@2A 0001BD
@2B 00023A
@2C 000288
@2D 0002A2
@2E 000285
@2F 000234
@30 0001B6
@31 000115
@32 00005F
@33 FFFFA2
@34 FFFEED
@35 FFFE50
@36 FFFDD6
@37 FFFD8A
@38 FFFD71
@39 FFFD8E
@3A FFFDDC
@3B FFFE57
@3C FFFEF3
@3D FFFFA4
@3E 00005C
@3F 00010B
