@00 000C5A83
@01 000E2706
@02 000ED0BE
@03 000E4744
@04 000C930B
@05 0009D4EF
@06 000643B7
@07 000227D8
@08 FFFDD5B5
@09 FFF9A6DC
@0A FFF5F2C6
@0B FFF307B5
@0C FFF12442
@0D FFF0721E
@0E FFF1027D
@0F FFF2CC7E
@10 FFF5ADA1
@11 FFF96C60
@12 FFFDBCAA
@13 000245E7
@14 0006AA14
@15 000A8D5C
@16 000D9D99
@17 000F9917
@18 00105413
@19 000FBC7D
@1A 000DDBAC
@1B 000AD5D8
@1C 0006E763
@1D 00026028
@1E FFFD9D28
@1F FFF90112
@20 FFF4EC4B
@21 FFF1B510
@22 FFEFA059
@23 FFEEDC13
@24 FFEF7B34
@25 FFF173EF
@26 FFF4A03E
@27 FFF8C0BE
@28 FFFD819B
@29 00028137
@2A 000757FA
@2B 000BA0B3
@2C 000F00DE
@2D 00113014
@2E 0011FE1F
@2F 00115717
@30 000F4546
@31 000BF094
@32 00079B8A
@33 00029E26
@34 FFFD5EE2
@35 FFF84A7D
@36 FFF3CB2E
@37 FFF03FFC
@38 FFEDF4EA
@39 FFED1C95
@3A FFEDCBE5
@3B FFEFF80F
@3C FFF37730
@3D FFF80372
@3E FFFD4076
@3F 0002C2A9
