@00 FFBC52
@01 FFCBBB
@02 FFDF1A
@03 FFF4D1
@04 000B19
@05 002026
@06 00324B
@07 00401F
@08 004896
@09 004B17
@0A 004784
@0B 003E3F
@0C 00301A
@0D 001E4B
@0E 000A4E
@0F FFF5C5
@10 FFE25A
@11 FFD196
@12 FFC4CB
@13 FFBCF1
@14 FFBA97
@15 FFBDDC
@16 FFC668
@17 FFD378
@18 FFE3F1
@19 FFF674
@1A 00097C
@1B 001B81
@1C 002B12
@1D 0036F9
@1E 003E4B
@1F 004081
@20 003D7E
@21 003593
@22 002970
@23 001A1F
@24 0008E5
@25 FFF72A
@26 FFE65D
@27 FFD7D6
@28 FFCCB8
@29 FFC5DE
@2A FFC3C7
@2B FFC691
@2C FFCDF2
@2D FFD944
@2E FFE793
@2F FFF7AE
@30 000845
@31 001800
@32 00259D
@33 00300A
@34 00367A
@35 003874
@36 0035DC
@37 002EF5
@38 002459
@39 0016ED
@3A 0007D0
@3B FFF83B
@3C FFE973
@3D FFDCA6
@3E FFD2D6
@3F FFCCC4
