@00 00777F
@01 00C44E
@02 010701
@03 01391A
@04 0154ED
@05 01561A
@06 013A0A
@07 010043
@08 00AAA5
@09 003D76
@0A FFBF47
@0B FF38AC
@0C FEB3CA
@0D FE3BBC
@0E FDDBE9
@0F FD9F3C
@10 FD8F66
@11 FDB41F
@12 FE1289
@13 FEACB0
@14 FF8139
@15 008B48
@16 01C29E
@17 031BEE
@18 048967
@19 05FB6D
@1A 076171
@1B 08AAE0
@1C 09C813
@1D 0AAB40
@1E 0B4942
@1F 0B9A47
