@00 FFF541BC
@01 FFEF245D
@02 FFEA7169
@03 FFE78693
@04 FFE69BEE
@05 FFE7BFB9
@06 FFEAD5A0
@07 FFEF9963
@08 FFF5A4B8
@09 FFFC77D9
@0A 0003840A
@0B 000A3744
@0C 001007FC
@0D 0014802E
@0E 001746AE
@0F 0018261B
@10 001710D6
@11 001421C3
@12 000F99BC
@13 0009DA02
@14 00035C1A
@15 FFFCA7C7
@16 FFF647F5
@17 FFF0BF82
@18 FFEC7EBF
@19 FFE9DA8C
@1A FFE905C0
@1B FFEA0D5F
@1C FFECD7DF
@1D FFF12794
@1E FFF69FFC
@1F FFFCCD7A
@20 00032EDC
@21 00093FEC
@22 000E841B
@23 0012907B
@24 0015143D
@25 0015DEF1
@26 0014E42D
@27 00123C33
@28 000E21B1
@29 0008ECAE
@2A 00030B36
@2B FFFCF842
@2C FFF731B1
@2D FFF22E1C
@2E FFEE5352
@2F FFEBEE4D
@30 FFEB2D2F
@31 FFEC1BD3
@32 FFEEA327
@33 FFF28B53
@34 FFF7808A
@35 FFFD1A06
@36 0002E2B0
@37 000862AC
@38 000D2909
@39 0010D4CE
@3A 00131CAB
@3B 0013D4AB
@3C 0012F17C
@3D 00108915
@3E 000CD09D
@3F 000817E2
