@00 FFFDDD
@01 FFFEA3
@02 FFFF88
@03 000079
@04 000163
@05 000234
@06 0002DB
@07 00034A
@08 000377
@09 00035C
@0A 0002FB
@0B 00025A
@0C 000183
@0D 000086
@0E FFFF77
@0F FFFE6B
@10 FFFD77
@11 FFFCB1
@12 FFFC28
@13 FFFBEC
@14 FFFC04
@15 FFFC70
@16 FFFD2C
@17 FFFE2B
@18 FFFF5C
@19 0000A7
@1A 0001F3
@1B 000324
@1C 000420
@1D 0004D0
@1E 000521
@1F 000509
@20 000485
@21 00039A
@22 000257
@23 0000D2
@24 FFFF29
@25 FFFD7D
@26 FFFBF1
@27 FFFAA8
@28 FFF9C1
@29 FFF955
@2A FFF971
@2B FFFA1B
@2C FFFB4C
@2D FFFCF1
@2E FFFEED
@2F 00011A
@30 00034B
@31 000553
@32 000702
@33 000832
@34 0008C1
@35 00089C
@36 0007BC
@37 00062C
@38 000403
@39 000169
@3A FFFE8F
@3B FFFBAF
@3C FFF907
@3D FFF6D4
@3E FFF548
@3F FFF48F
