@00 FFFED9
@01 FFFE84
@02 FFFE4D
@03 FFFE3A
@04 FFFE4B
@05 FFFE80
@06 FFFED4
@07 FFFF41
@08 FFFFBE
@09 000042
@0A 0000C1
@0B 000130
@0C 000188
@0D 0001C1
@0E 0001D5
@0F 0001C3
@10 00018D
@11 000136
@12 0000C5
@13 000044
@14 FFFFBC
@15 FFFF39
@16 FFFEC6
@17 FFFE6B
@18 FFFE31
@19 FFFE1C
@1A FFFE2E
@1B FFFE67
@1C FFFEC0
@1D FFFF35
@1E FFFFBA
@1F 000046
@20 0000CD
@21 000144
@22 0001A2
@23 0001DE
@24 0001F3
@25 0001E0
@26 0001A6
@27 00014A
@28 0000D2
@29 000048
@2A FFFFB8
@2B FFFF2D
@2C FFFEB2
@2D FFFE51
@2E FFFE13
@2F FFFDFD
@30 FFFE11
@31 FFFE4C
@32 FFFEAC
@33 FFFF28
@34 FFFFB6
@35 00004B
@36 0000DA
@37 000159
@38 0001BC
@39 0001FC
@3A 000213
@3B 0001FF
@3C 0001C1
@3D 00015F
@3E 0000DF
@3F 00004D
