@00 009BDA
@01 00AE32
@02 00E47B
@03 013C7A
@04 01B296
@05 0241F9
@06 02E4C4
@07 03944D
@08 044965
@09 04FCA1
@0A 05A6AA
@0B 06408B
@0C 06C3F8
@0D 072B8D
@0E 07730F
@0F 07978F
@10 07978F
@11 07730F
@12 072B8D
@13 06C3F8
@14 06408B
@15 05A6AA
@16 04FCA1
@17 044965
@18 03944D
@19 02E4C4
@1A 0241F9
@1B 01B296
@1C 013C7A
@1D 00E47B
@1E 00AE32
@1F 009BDA
