@00 FFFAA9
@01 FFF9EC
@02 FFF9AE
@03 FFF9F3
@04 FFFAB5
@05 FFFBE4
@06 FFFD66
@07 FFFF1C
@08 0000E3
@09 000296
@0A 000411
@0B 000536
@0C 0005EE
@0D 00062A
@0E 0005E7
@0F 00052A
@10 000403
@11 00028A
@12 0000DE
@13 FFFF22
@14 FFFD7B
@15 FFFC09
@16 FFFAEB
@17 FFFA37
@18 FFF9FC
@19 FFFA3E
@1A FFFAF6
@1B FFFC16
@1C FFFD86
@1D FFFF27
@1E 0000D8
@1F 000276
@20 0003DE
@21 0004F5
@22 0005A4
@23 0005DE
@24 00059E
@25 0004EA
@26 0003D1
@27 00026A
@28 0000D3
@29 FFFF2D
@2A FFFD9A
@2B FFFC3A
@2C FFFB2A
@2D FFFA7F
@2E FFFA47
@2F FFFA86
@30 FFFB35
@31 FFFC47
@32 FFFDA5
@33 FFFF32
@34 0000CE
@35 000257
@36 0003AE
@37 0004B7
@38 00055E
@39 000595
@3A 000558
@3B 0004AC
@3C 0003A1
@3D 00024C
@3E 0000C9
@3F FFFF37
