@00 FFFFE2
@01 00001E
@02 000057
@03 000089
@04 0000B1
@05 0000CA
@06 0000D4
@07 0000CC
@08 0000B3
@09 00008C
@0A 000059
@0B 00001F
@0C FFFFE1
@0D FFFFA6
@0E FFFF72
@0F FFFF49
@10 FFFF2F
@11 FFFF25
@12 FFFF2D
@13 FFFF47
@14 FFFF6F
@15 FFFFA4
@16 FFFFE0
@17 000020
@18 00005D
@19 000093
@1A 0000BD
@1B 0000D8
@1C 0000E2
@1D 0000DA
@1E 0000C0
@1F 000096
@20 00005F
@21 000021
@22 FFFFDF
@23 FFFFA0
@24 FFFF68
@25 FFFF3C
@26 FFFF20
@27 FFFF16
@28 FFFF1F
@29 FFFF3A
@2A FFFF65
@2B FFFF9E
@2C FFFFDE
@2D 000022
@2E 000063
@2F 00009D
@30 0000CB
@31 0000E8
@32 0000F2
@33 0000E9
@34 0000CD
@35 0000A0
@36 000066
@37 000023
@38 FFFFDD
@39 FFFF99
@3A FFFF5D
@3B FFFF2E
@3C FFFF10
@3D FFFF05
@3E FFFF0F
@3F FFFF2C
