@00 0007CBD9
@01 0008161B
@02 0007B8B2
@03 0006BCC2
@04 00053824
@05 00034B80
@06 00011F93
@07 FFFEE1D1
@08 FFFCC0AD
@09 FFFAE7D9
@0A FFF97CC6
@0B FFF89BAC
@0C FFF8555D
@0D FFF8AE06
@0E FFF99CF4
@0F FFFB0D6D
@10 FFFCE076
@11 FFFEEF6D
@12 00010F3E
@13 000313E0
@14 0004D3EC
@15 00062BEB
@16 00070122
@17 000743A7
@18 0006EF8D
@19 00060D15
@1A 0004AFEB
@1B 0002F56C
@1C 00010233
@1D FFFEFF14
@1E FFFD15C2
@1F FFFB6D73
@20 FFFA27BB
@21 FFF95DE7
@22 FFF91F02
@23 FFF96EBF
@24 FFFA4545
@25 FFFB8FF0
@26 FFFD32EE
@27 FFFF0B92
@28 0000F335
@29 0002C25E
@2A 000453F0
@2B 00058825
@2C 00064713
@2D 0006827F
@2E 000636F2
@2F 00056BDC
@30 000432E8
@31 0002A66E
@32 0000E73F
@33 FFFF19ED
@34 FFFD63D2
@35 FFFBE806
@36 FFFAC493
@37 FFFA1015
@38 FFF9D7FB
@39 FFFA1F86
@3A FFFADFA7
@3B FFFC07A4
@3C FFFD7E90
@3D FFFF2561
@3E 0000D980
@3F 000277A1
