@00 000357
@01 0002EC
@02 000245
@03 00016F
@04 00007E
@05 FFFF83
@06 FFFE93
@07 FFFDC3
@08 FFFD21
@09 FFFCBC
@0A FFFC9B
@0B FFFCC0
@0C FFFD28
@0D FFFDCB
@0E FFFE9B
@0F FFFF86
@10 00007A
@11 000163
@12 00022E
@13 0002CB
@14 00032D
@15 00034E
@16 000329
@17 0002C4
@18 000226
@19 00015C
@1A 000077
@1B FFFF89
@1C FFFEA7
@1D FFFDE1
@1E FFFD49
@1F FFFCE9
@20 FFFCCA
@21 FFFCED
@22 FFFD50
@23 FFFDEA
@24 FFFEAE
@25 FFFF8C
@26 000073
@27 000150
@28 000210
@29 0002A4
@2A 000301
@2B 000320
@2C 0002FD
@2D 00029D
@2E 000208
@2F 000149
@30 000070
@31 FFFF90
@32 FFFEBA
@33 FFFDFF
@34 FFFD6E
@35 FFFD14
@36 FFFCF6
@37 FFFD18
@38 FFFD75
@39 FFFE07
@3A FFFEC0
@3B FFFF93
@3C 00006D
@3D 00013D
@3E 0001F3
@3F 00027F
