@00 000495
@01 00066E
@02 000858
@03 000A59
@04 000C76
@05 000EAF
@06 0010FC
@07 001352
@08 00159F
@09 0017CA
@0A 0019B3
@0B 001B36
@0C 001C29
@0D 001C5F
@0E 001BA9
@0F 0019DA
@10 0016C4
@11 001241
@12 000C31
@13 00047C
@14 FFFB18
@15 FFF008
@16 FFE35E
@17 FFD540
@18 FFC5E4
@19 FFB595
@1A FFA4AF
@1B FF93A3
@1C FF82F2
@1D FF732D
@1E FF64F3
@1F FF58EC
@20 FF4FC7
@21 FF4A37
@22 FF48EC
@23 FF4C8F
@24 FF55C1
@25 FF650F
@26 FF7AF6
@27 FF97D6
@28 FFBBF5
@29 FFE778
@2A 001A5F
@2B 005486
@2C 0095A2
@2D 00DD40
@2E 012AC7
@2F 017D79
@30 01D472
@31 022EB2
@32 028B1A
@33 02E877
@34 034582
@35 03A0EC
@36 03F960
@37 044D89
@38 049C1F
@39 04E3E8
@3A 0523C1
@3B 055AA3
@3C 0587AA
@3D 05AA1B
@3E 05C163
@3F 05CD1F
@40 05CD1F
@41 05C163
@42 05AA1B
@43 0587AA
@44 055AA3
@45 0523C1
@46 04E3E8
@47 049C1F
@48 044D89
@49 03F960
@4A 03A0EC
@4B 034582
@4C 02E877
@4D 028B1A
@4E 022EB2
@4F 01D472
@50 017D79
@51 012AC7
@52 00DD40
@53 0095A2
@54 005486
@55 001A5F
@56 FFE778
@57 FFBBF5
@58 FF97D6
@59 FF7AF6
@5A FF650F
@5B FF55C1
@5C FF4C8F
@5D FF48EC
@5E FF4A37
@5F FF4FC7
@60 FF58EC
@61 FF64F3
@62 FF732D
@63 FF82F2
@64 FF93A3
@65 FFA4AF
@66 FFB595
@67 FFC5E4
@68 FFD540
@69 FFE35E
@6A FFF008
@6B FFFB18
@6C 00047C
@6D 000C31
@6E 001241
@6F 0016C4
@70 0019DA
@71 001BA9
@72 001C5F
@73 001C29
@74 001B36
@75 0019B3
@76 0017CA
@77 00159F
@78 001352
@79 0010FC
@7A 000EAF
@7B 000C76
@7C 000A59
@7D 000858
@7E 00066E
@7F 000495
