@00 FFFF45
@01 FFFFC0
@02 000040
@03 0000B9
@04 000123
@05 000175
@06 0001A8
@07 0001B8
@08 0001A5
@09 000170
@0A 00011E
@0B 0000B5
@0C 00003E
@0D FFFFC2
@0E FFFF4D
@0F FFFEE6
@10 FFFE97
@11 FFFE66
@12 FFFE56
@13 FFFE68
@14 FFFE9B
@15 FFFEEB
@16 FFFF51
@17 FFFFC4
@18 00003C
@19 0000AE
@1A 000111
@1B 00015D
@1C 00018D
@1D 00019D
@1E 00018B
@1F 000159
@20 00010C
@21 0000AA
@22 00003A
@23 FFFFC6
@24 FFFF58
@25 FFFEF8
@26 FFFEAE
@27 FFFE7F
@28 FFFE70
@29 FFFE81
@2A FFFEB2
@2B FFFEFC
@2C FFFF5C
@2D FFFFC8
@2E 000038
@2F 0000A3
@30 000100
@31 000148
@32 000175
@33 000183
@34 000172
@35 000144
@36 0000FB
@37 00009F
@38 000036
@39 FFFFCA
@3A FFFF63
@3B FFFF08
@3C FFFEC3
@3D FFFE97
@3E FFFE89
@3F FFFE9A
