@00 001191
@01 001417
@02 0014FF
@03 001433
@04 0011C2
@05 000DDD
@06 0008D1
@07 000307
@08 FFFCF6
@09 FFF71C
@0A FFF1F2
@0B FFEDE5
@0C FFEB4B
@0D FFEA5B
@0E FFEB2D
@0F FFEDB1
@10 FFF1B5
@11 FFF6E9
@12 FFFCE0
@13 000322
@14 00092B
@15 000E7F
@16 0012AC
@17 00155B
@18 001652
@19 00157A
@1A 0012E3
@1B 000EBE
@1C 000961
@1D 000339
@1E FFFCC5
@1F FFF68A
@20 FFF10C
@21 FFECBC
@22 FFE9F6
@23 FFE8F7
@24 FFE9D6
@25 FFEC83
@26 FFF0C9
@27 FFF652
@28 FFFCAD
@29 000356
@2A 0009C4
@2B 000F70
@2C 0013E4
@2D 0016C1
@2E 0017C9
@2F 0016E3
@30 001420
@31 000FB7
@32 0009FF
@33 00036F
@34 FFFC8E
@35 FFF5EA
@36 FFF00D
@37 FFEB74
@38 FFE87E
@39 FFE76E
@3A FFE85A
@3B FFEB34
@3C FFEFC3
@3D FFF5AB
@3E FFFC73
@3F 000390
