@00 0010E4
@01 000EC6
@02 000B78
@03 000742
@04 00027B
@05 FFFD87
@06 FFF8CC
@07 FFF4AC
@08 FFF17C
@09 FFEF7D
@0A FFEED5
@0B FFEF92
@0C FFF1A1
@0D FFF4D7
@0E FFF8F0
@0F FFFD96
@10 000268
@11 000702
@12 000B05
@13 000E1F
@14 001011
@15 0010B4
@16 000FFD
@17 000DFC
@18 000ADC
@19 0006DF
@1A 000259
@1B FFFDA8
@1C FFF92E
@1D FFF547
@1E FFF242
@1F FFF05D
@20 FFEFBE
@21 FFF071
@22 FFF264
@23 FFF56F
@24 FFF950
@25 FFFDB7
@26 000248
@27 0006A3
@28 000A71
@29 000D61
@2A 000F39
@2B 000FD3
@2C 000F26
@2D 000D40
@2E 000A4A
@2F 000683
@30 00023A
@31 FFFDC8
@32 FFF989
@33 FFF5D6
@34 FFF2F9
@35 FFF12E
@36 FFF097
@37 FFF140
@38 FFF319
@39 FFF5FB
@3A FFF9A9
@3B FFFDD5
@3C 000229
@3D 00064B
@3E 0009E6
@3F 000CB0
