@00 FFF9A0
@01 FFF7CB
@02 FFF69E
@03 FFF633
@04 FFF694
@05 FFF7B8
@06 FFF98A
@07 FFFBE5
@08 FFFE97
@09 00016A
@0A 000422
@0B 000688
@0C 000869
@0D 00099D
@0E 000A0B
@0F 0009A8
@10 00087C
@11 00069F
@12 000435
@13 000172
@14 FFFE8D
@15 FFFBC3
@16 FFF94F
@17 FFF762
@18 FFF626
@19 FFF5B6
@1A FFF61B
@1B FFF74E
@1C FFF938
@1D FFFBB0
@1E FFFE85
@1F 00017C
@20 000457
@21 0006DC
@22 0008D5
@23 000A18
@24 000A8B
@25 000A24
@26 0008E9
@27 0006F4
@28 00046B
@29 000184
@2A FFFE7B
@2B FFFB8D
@2C FFF8F9
@2D FFF6F3
@2E FFF5A8
@2F FFF532
@30 FFF59C
@31 FFF6DE
@32 FFF8E0
@33 FFFB79
@34 FFFE72
@35 00018F
@36 00048F
@37 000734
@38 000946
@39 000A9A
@3A 000B13
@3B 000AA6
@3C 00095C
@3D 00074D
@3E 0004A4
@3F 000198
