@00 0000AD
@01 FFFF54
@02 FFFE0B
@03 FFFCEB
@04 FFFC0D
@05 FFFB82
@06 FFFB54
@07 FFFB87
@08 FFFC17
@09 FFFCF6
@0A FFFE14
@0B FFFF58
@0C 0000A8
@0D 0001E9
@0E 000301
@0F 0003D9
@10 000461
@11 00048D
@12 00045C
@13 0003D0
@14 0002F6
@15 0001E0
@16 0000A4
@17 FFFF5C
@18 FFFE24
@19 FFFD13
@1A FFFC40
@1B FFFBBC
@1C FFFB91
@1D FFFBC1
@1E FFFC49
@1F FFFD1E
@20 FFFE2D
@21 FFFF60
@22 00009F
@23 0001D0
@24 0002DA
@25 0003A7
@26 000428
@27 000452
@28 000423
@29 00039E
@2A 0002CF
@2B 0001C7
@2C 00009C
@2D FFFF65
@2E FFFE3C
@2F FFFD39
@30 FFFC71
@31 FFFBF4
@32 FFFBCA
@33 FFFBF9
@34 FFFC7A
@35 FFFD43
@36 FFFE45
@37 FFFF68
@38 000097
@39 0001B8
@3A 0002B4
@3B 000377
@3C 0003F1
@3D 00041A
@3E 0003ED
@3F 00036F
