@00 001F38
@01 002C68
@02 003996
@03 004673
@04 0052B0
@05 005DF8
@06 0067F8
@07 00705F
@08 0076DD
@09 007B29
@0A 007D03
@0B 007C31
@0C 007887
@0D 0071E6
@0E 00683C
@0F 005B87
@10 004BD8
@11 00394F
@12 002420
@13 000C91
@14 FFF2F9
@15 FFD7C1
@16 FFBB62
@17 FF9E63
@18 FF815A
@19 FF64E6
@1A FF49B0
@1B FF3064
@1C FF19B4
@1D FF0651
@1E FEF6E6
@1F FEEC19
