@00 FFF48F
@01 FFF548
@02 FFF6D4
@03 FFF907
@04 FFFBAF
@05 FFFE8F
@06 000169
@07 000403
@08 00062C
@09 0007BC
@0A 00089C
@0B 0008C1
@0C 000832
@0D 000702
@0E 000553
@0F 00034B
@10 00011A
@11 FFFEED
@12 FFFCF1
@13 FFFB4C
@14 FFFA1B
@15 FFF971
@16 FFF955
@17 FFF9C1
@18 FFFAA8
@19 FFFBF1
@1A FFFD7D
@1B FFFF29
@1C 0000D2
@1D 000257
@1E 00039A
@1F 000485
@20 000509
@21 000521
@22 0004D0
@23 000420
@24 000324
@25 0001F3
@26 0000A7
@27 FFFF5C
@28 FFFE2B
@29 FFFD2C
@2A FFFC70
@2B FFFC04
@2C FFFBEC
@2D FFFC28
@2E FFFCB1
@2F FFFD77
@30 FFFE6B
@31 FFFF77
@32 000086
@33 000183
@34 00025A
@35 0002FB
@36 00035C
@37 000377
@38 00034A
@39 0002DB
@3A 000234
@3B 000163
@3C 000079
@3D FFFF88
@3E FFFEA3
@3F FFFDDD
