@00 FFE633
@01 FFEF90
@02 FFFA58
@03 0005AE
@04 0010A6
@05 001A5B
@06 002200
@07 0026F2
@08 0028C4
@09 002748
@0A 002297
@0B 001B0B
@0C 00113B
@0D 0005EE
@0E FFFA0B
@0F FFEE8A
@10 FFE45B
@11 FFDC54
@12 FFD722
@13 FFD537
@14 FFD6C3
@15 FFDBAE
@16 FFE39A
@17 FFEDE7
@18 FFF9C6
@19 000642
@1A 001259
@1B 001D0F
@1C 002581
@1D 002AF9
@1E 002CFF
@1F 002B61
@20 002636
@21 001DE3
@22 00130C
@23 00068F
@24 FFF969
@25 FFECAD
@26 FFE164
@27 FFD87D
@28 FFD2B7
@29 FFD092
@2A FFD245
@2B FFD7B5
@2C FFE07A
@2D FFEBE7
@2E FFF915
@2F 0006F4
@30 001466
@31 002052
@32 0029BC
@33 002FD8
@34 00321E
@35 003056
@36 002A9A
@37 002155
@38 001542
@39 000752
@3A FFF8A4
@3B FFEA68
@3C FFDDC7
@3D FFD3CD
@3E FFCD51
@3F FFCAE4
