@00 FFFED9
@01 FFFEFC
@02 FFFF35
@03 FFFF7F
@04 FFFFD4
@05 00002D
@06 000082
@07 0000CE
@08 000109
@09 000130
@0A 00013D
@0B 000132
@0C 00010D
@0D 0000D2
@0E 000086
@0F 00002E
@10 FFFFD2
@11 FFFF79
@12 FFFF2B
@13 FFFEEE
@14 FFFEC6
@15 FFFEB8
@16 FFFEC4
@17 FFFEEA
@18 FFFF27
@19 FFFF76
@1A FFFFD1
@1B 000030
@1C 00008B
@1D 0000DC
@1E 00011C
@1F 000145
@20 000153
@21 000147
@22 00011F
@23 0000E0
@24 00008F
@25 000031
@26 FFFFCF
@27 FFFF70
@28 FFFF1C
@29 FFFEDB
@2A FFFEB0
@2B FFFEA1
@2C FFFEAE
@2D FFFED7
@2E FFFF18
@2F FFFF6D
@30 FFFFCD
@31 000033
@32 000095
@33 0000EB
@34 00012F
@35 00015B
@36 00016B
@37 00015D
@38 000133
@39 0000F0
@3A 000098
@3B 000034
@3C FFFFCB
@3D FFFF66
@3E FFFF0D
@3F FFFEC7
