@00 000390
@01 FFFC73
@02 FFF5AB
@03 FFEFC3
@04 FFEB34
@05 FFE85A
@06 FFE76E
@07 FFE87E
@08 FFEB74
@09 FFF00D
@0A FFF5EA
@0B FFFC8E
@0C 00036F
@0D 0009FF
@0E 000FB7
@0F 001420
@10 0016E3
@11 0017C9
@12 0016C1
@13 0013E4
@14 000F70
@15 0009C4
@16 000356
@17 FFFCAD
@18 FFF652
@19 FFF0C9
@1A FFEC83
@1B FFE9D6
@1C FFE8F7
@1D FFE9F6
@1E FFECBC
@1F FFF10C
@20 FFF68A
@21 FFFCC5
@22 000339
@23 000961
@24 000EBE
@25 0012E3
@26 00157A
@27 001652
@28 00155B
@29 0012AC
@2A 000E7F
@2B 00092B
@2C 000322
@2D FFFCE0
@2E FFF6E9
@2F FFF1B5
@30 FFEDB1
@31 FFEB2D
@32 FFEA5B
@33 FFEB4B
@34 FFEDE5
@35 FFF1F2
@36 FFF71C
@37 FFFCF6
@38 000307
@39 0008D1
@3A 000DDD
@3B 0011C2
@3C 001433
@3D 0014FF
@3E 001417
@3F 001191
