@00 00006A
@01 00006E
@02 00006A
@03 00005D
@04 000048
@05 00002E
@06 000010
@07 FFFFF0
@08 FFFFD3
@09 FFFFB8
@0A FFFFA4
@0B FFFF97
@0C FFFF93
@0D FFFF98
@0E FFFFA5
@0F FFFFB9
@10 FFFFD3
@11 FFFFF1
@12 00000F
@13 00002D
@14 000047
@15 00005B
@16 000067
@17 00006C
@18 000067
@19 00005A
@1A 000046
@1B 00002D
@1C 00000F
@1D FFFFF1
@1E FFFFD4
@1F FFFFBA
@20 FFFFA6
@21 FFFF9A
@22 FFFF96
@23 FFFF9A
@24 FFFFA7
@25 FFFFBA
@26 FFFFD4
@27 FFFFF1
@28 00000F
@29 00002C
@2A 000045
@2B 000059
@2C 000065
@2D 000069
@2E 000065
@2F 000059
@30 000045
@31 00002C
@32 00000F
@33 FFFFF1
@34 FFFFD4
@35 FFFFBB
@36 FFFFA8
@37 FFFF9B
@38 FFFF97
@39 FFFF9C
@3A FFFFA8
@3B FFFFBC
@3C FFFFD5
@3D FFFFF1
@3E 00000F
@3F 00002B
