@00 FFB231
@01 FFAE41
@02 FFB0EE
@03 FFBA1B
@04 FFC925
@05 FFDCEA
@06 FFF3E1
@07 000C39
@08 0023FB
@09 003935
@0A 004A20
@0B 005548
@0C 0059AA
@0D 0056CB
@0E 004CC7
@0F 003C4E
@10 00269A
@11 000D59
@12 FFF288
@13 FFD851
@14 FFC0DA
@15 FFAE1C
@16 FFA1B4
@17 FF9CC5
@18 FF9FDC
@19 FFAAE0
@1A FFBD13
@1B FFD51E
@1C FFF129
@1D 000EFE
@1E 002C37
@1F 00466E
@20 005B6F
@21 006966
@22 006F09
@23 006BB3
@24 005F78
@25 004B25
@26 003035
@27 0010B4
@28 FFEF1B
@29 FFCE1B
@2A FFB06C
@2B FF988D
@2C FF8897
@2D FF8207
@2E FF85A3
@2F FF935F
@30 FFAA5F
@31 FFC8FC
@32 FFECE8
@33 001358
@34 003938
@35 005B6A
@36 00770B
@37 0089A8
@38 00917D
@39 008D96
@3A 007DEF
@3B 006378
@3C 00400A
@3D 001645
@3E FFE963
@3F FFBCF8
