@00 FFD586
@01 FFD2EA
@02 FFD3F2
@03 FFD8AA
@04 FFE0D2
@05 FFEBDC
@06 FFF8F9
@07 000727
@08 001542
@09 00221F
@0A 002CA0
@0B 0033D0
@0C 0036F9
@0D 0035B2
@0E 002FED
@0F 0025FA
@10 001885
@11 00088D
@12 FFF74C
@13 FFE624
@14 FFD681
@15 FFC9BE
@16 FFC104
@17 FFBD2F
@18 FFBEBF
@19 FFC5C5
@1A FFD1DD
@1B FFE236
@1C FFF59D
@1D 000A93
@1E 001F6A
@1F 003268
@20 0041E9
@21 004C85
@22 00512E
@23 004F4A
@24 0046C5
@25 003815
@26 002438
@27 000CA2
@28 FFF324
@29 FFD9C7
@2A FFC2A5
@2B FFAFBE
@2C FFA2C8
@2D FF9D0F
@2E FF9F51
@2F FFA9A9
@30 FFBB8A
@31 FFD3C3
@32 FFF08F
@33 000FBB
@34 002EC9
@35 004B28
@36 006265
@37 007262
@38 007985
@39 0076DD
@3A 006A42
@3B 005458
@3C 003691
@3D 001311
@3E FFEC8C
@3F FFC612
