@00 000564
@01 0001DA
@02 FFFE25
@03 FFFA92
@04 FFF76C
@05 FFF4F4
@06 FFF35F
@07 FFF2CF
@08 FFF350
@09 FFF4DA
@0A FFF74D
@0B FFFA78
@0C FFFE1A
@0D 0001E7
@0E 000592
@0F 0008CD
@10 000B55
@11 000CF4
@12 000D88
@13 000D03
@14 000B70
@15 0008EC
@16 0005AC
@17 0001F3
@18 FFFE0C
@19 FFFA49
@1A FFF6F9
@1B FFF460
@1C FFF2B6
@1D FFF21E
@1E FFF2A6
@1F FFF444
@20 FFF6D8
@21 FFFA2E
@22 FFFE00
@23 000201
@24 0005DD
@25 000943
@26 000BEE
@27 000DA3
@28 000E3F
@29 000DB3
@2A 000C0A
@2B 000965
@2C 0005F9
@2D 00020D
@2E FFFDF2
@2F FFF9FC
@30 FFF67E
@31 FFF3C2
@32 FFF201
@33 FFF161
@34 FFF1F0
@35 FFF3A4
@36 FFF65B
@37 FFF9DE
@38 FFFDE5
@39 00021C
@3A 00062D
@3B 0009C2
@3C 000C91
@3D 000E5E
@3E 000F02
@3F 000E6F
