@00 0011A6
@01 0010FA
@02 000EEC
@03 000BA5
@04 000768
@05 00028B
@06 FFFD73
@07 FFF889
@08 FFF434
@09 FFF0CF
@0A FFEEA1
@0B FFEDD9
@0C FFEE8A
@0D FFF0A7
@0E FFF406
@0F FFF862
@10 FFFD62
@11 0002A0
@12 0007AD
@13 000C22
@14 000FA1
@15 0011DF
@16 0012AC
@17 0011F6
@18 000FCA
@19 000C53
@1A 0007D7
@1B 0002B1
@1C FFFD4D
@1D FFF81A
@1E FFF384
@1F FFEFEB
@20 FFED9C
@21 FFECC9
@22 FFED83
@23 FFEFC0
@24 FFF351
@25 FFF7EF
@26 FFFD3B
@27 0002C7
@28 000822
@29 000CDA
@2A 00108E
@2B 0012EE
@2C 0013C9
@2D 001308
@2E 0010BB
@2F 000D0F
@30 00084E
@31 0002DA
@32 FFFD24
@33 FFF7A0
@34 FFF2C4
@35 FFEEF4
@36 FFEC81
@37 FFEBA0
@38 FFEC66
@39 FFEEC4
@3A FFF28C
@3B FFF772
@3C FFFD10
@3D 0002F3
@3E 0008A0
@3F 000DA3
