@00 0B9A47
@01 0B4942
@02 0AAB40
@03 09C813
@04 08AAE0
@05 076171
@06 05FB6D
@07 048967
@08 031BEE
@09 01C29E
@0A 008B48
@0B FF8139
@0C FEACB0
@0D FE1289
@0E FDB41F
@0F FD8F66
@10 FD9F3C
@11 FDDBE9
@12 FE3BBC
@13 FEB3CA
@14 FF38AC
@15 FFBF47
@16 003D76
@17 00AAA5
@18 010043
@19 013A0A
@1A 01561A
@1B 0154ED
@1C 01391A
@1D 010701
@1E 00C44E
@1F 00777F
