@00 00262E
@01 002673
@02 002741
@03 002898
@04 002A77
@05 002CDD
@06 002FC8
@07 003337
@08 003727
@09 003B96
@0A 004081
@0B 0045E5
@0C 004BBF
@0D 00520B
@0E 0058C5
@0F 005FE8
@10 006771
@11 006F5B
@12 0077A1
@13 00803D
@14 00892A
@15 009262
@16 009BE1
@17 00A59F
@18 00AF96
@19 00B9C2
@1A 00C41A
@1B 00CE99
@1C 00D938
@1D 00E3F0
@1E 00EEBB
@1F 00F992
@20 01046E
@21 010F48
@22 011A1A
@23 0124DD
@24 012F89
@25 013A19
@26 014485
@27 014EC8
@28 0158DA
@29 0162B6
@2A 016C55
@2B 0175B1
@2C 017EC5
@2D 01878A
@2E 018FFB
@2F 019814
@30 019FCE
@31 01A725
@32 01AE14
@33 01B497
@34 01BAAB
@35 01C04A
@36 01C572
@37 01CA1F
@38 01CE4F
@39 01D1FF
@3A 01D52C
@3B 01D7D5
@3C 01D9F8
@3D 01DB93
@3E 01DCA5
@3F 01DD2F
@40 01DD2F
@41 01DCA5
@42 01DB93
@43 01D9F8
@44 01D7D5
@45 01D52C
@46 01D1FF
@47 01CE4F
@48 01CA1F
@49 01C572
@4A 01C04A
@4B 01BAAB
@4C 01B497
@4D 01AE14
@4E 01A725
@4F 019FCE
@50 019814
@51 018FFB
@52 01878A
@53 017EC5
@54 0175B1
@55 016C55
@56 0162B6
@57 0158DA
@58 014EC8
@59 014485
@5A 013A19
@5B 012F89
@5C 0124DD
@5D 011A1A
@5E 010F48
@5F 01046E
@60 00F992
@61 00EEBB
@62 00E3F0
@63 00D938
@64 00CE99
@65 00C41A
@66 00B9C2
@67 00AF96
@68 00A59F
@69 009BE1
@6A 009262
@6B 00892A
@6C 00803D
@6D 0077A1
@6E 006F5B
@6F 006771
@70 005FE8
@71 0058C5
@72 00520B
@73 004BBF
@74 0045E5
@75 004081
@76 003B96
@77 003727
@78 003337
@79 002FC8
@7A 002CDD
@7B 002A77
@7C 002898
@7D 002741
@7E 002673
@7F 00262E
