@00 FFF8F6
@01 FFF9D0
@02 FFFB2C
@03 FFFCEE
@04 FFFEF2
@05 00010E
@06 000317
@07 0004E1
@08 000649
@09 00072F
@0A 000781
@0B 000737
@0C 000657
@0D 0004F2
@0E 000325
@0F 000114
@10 FFFEEB
@11 FFFCD6
@12 FFFB00
@13 FFF990
@14 FFF8A4
@15 FFF850
@16 FFF89C
@17 FFF981
@18 FFFAEF
@19 FFFCC7
@1A FFFEE5
@1B 00011C
@1C 00033E
@1D 000520
@1E 000699
@1F 00078A
@20 0007E0
@21 000793
@22 0006A8
@23 000531
@24 00034D
@25 000122
@26 FFFEDD
@27 FFFCAD
@28 FFFAC0
@29 FFF93E
@2A FFF846
@2B FFF7EE
@2C FFF83E
@2D FFF92E
@2E FFFAAE
@2F FFFC9E
@30 FFFED7
@31 00012A
@32 000368
@33 000561
@34 0006ED
@35 0007EA
@36 000845
@37 0007F3
@38 0006FC
@39 000573
@3A 000377
@3B 000131
@3C FFFECF
@3D FFFC83
@3E FFFA7D
@3F FFF8E8
