@00 FFFE58F2
@01 FFFEB8B6
@02 FFFF31A9
@03 FFFFB9BF
@04 000045D2
@05 0000CA8C
@06 00013D54
@07 00019523
@08 0001CB3B
@09 0001DBAB
@0A 0001C597
@0B 00018B3E
@0C 000131C7
@0D 0000C0C7
@0E 000041A3
@0F FFFFBEC5
@10 FFFF42C2
@11 FFFED784
@12 FFFE8578
@13 FFFE52EB
@14 FFFE438C
@15 FFFE582B
@16 FFFE8EAE
@17 FFFEE245
@18 FFFF4BDB
@19 FFFFC2AA
@1A 00003CF6
@1B 0000B0DB
@1C 00011518
@1D 000161CA
@1E 0001910D
@1F 00019F6F
@20 00018C2D
@21 0001593E
@22 00010B1D
@23 0000A86A
@24 00003959
@25 FFFFC700
@26 FFFF5AA1
@27 FFFEFCE3
@28 FFFEB525
@29 FFFE88EC
@2A FFFE7B72
@2B FFFE8D6D
@2C FFFEBD0C
@2D FFFF061C
@2E FFFF626F
@2F FFFFCA58
@30 00003556
@31 00009AC2
@32 0000F283
@33 000135AF
@34 00015F1D
@35 00016BC4
@36 00015AF7
@37 00012E69
@38 0000EA05
@39 00009394
@3A 00003243
@3B FFFFCE08
@3C FFFF6F00
@3D FFFF1CC1
@3E FFFEDDC5
@3F FFFEB6E7
