@00 FFF75C
@01 FFFCD1
@02 0003D1
@03 000E6D
@04 001EDD
@05 00375F
@06 005A0D
@07 0088B5
@08 00C4B4
@09 010ED2
@0A 01672A
@0B 01CD1A
@0C 023F39
@0D 02BB5D
@0E 033EAA
@0F 03C5AE
@10 044C82
@11 04CEF9
@12 0548CF
@13 05B5DB
@14 061249
@15 065AC4
@16 068CA2
@17 06A60B
@18 06A60B
@19 068CA2
@1A 065AC4
@1B 061249
@1C 05B5DB
@1D 0548CF
@1E 04CEF9
@1F 044C82
@20 03C5AE
@21 033EAA
@22 02BB5D
@23 023F39
@24 01CD1A
@25 01672A
@26 010ED2
@27 00C4B4
@28 0088B5
@29 005A0D
@2A 00375F
@2B 001EDD
@2C 000E6D
@2D 0003D1
@2E FFFCD1
@2F FFF75C
