@00 00005E
@01 00003B
@02 000014
@03 FFFFEC
@04 FFFFC5
@05 FFFFA3
@06 FFFF89
@07 FFFF79
@08 FFFF74
@09 FFFF7A
@0A FFFF8B
@0B FFFFA5
@0C FFFFC6
@0D FFFFEC
@0E 000014
@0F 000039
@10 00005A
@11 000073
@12 000083
@13 000089
@14 000083
@15 000072
@16 000059
@17 000038
@18 000013
@19 FFFFED
@1A FFFFC8
@1B FFFFA8
@1C FFFF90
@1D FFFF80
@1E FFFF7B
@1F FFFF81
@20 FFFF91
@21 FFFFAA
@22 FFFFC9
@23 FFFFED
@24 000013
@25 000036
@26 000055
@27 00006E
@28 00007D
@29 000082
@2A 00007C
@2B 00006D
@2C 000054
@2D 000035
@2E 000012
@2F FFFFEE
@30 FFFFCB
@31 FFFFAD
@32 FFFF95
@33 FFFF86
@34 FFFF81
@35 FFFF87
@36 FFFF96
@37 FFFFAE
@38 FFFFCC
@39 FFFFEE
@3A 000012
@3B 000034
@3C 000051
@3D 000068
@3E 000077
@3F 00007C
