@00 FFE26D28
@01 FFDE7090
@02 FFDD32E0
@03 FFDEC6A5
@04 FFE3041D
@05 FFE98CF9
@06 FFF1D485
@07 FFFB2B78
@08 0004CE63
@09 000DF5AC
@0A 0015E5A6
@0B 001BFD99
@0C 001FC46C
@0D 0020F205
@0E 001F749D
@0F 001B71A4
@10 00154237
@11 000D6B6D
@12 0004932E
@13 FFFB7287
@14 FFF2C68C
@15 FFEB4115
@16 FFE57A84
@17 FFE1E5B9
@18 FFE0C733
@19 FFE22FF7
@1A FFE5FCB5
@1B FFEBD91C
@1C FFF34724
@1D FFFBA99A
@1E 00045115
@1F 000C8A4E
@20 0013AC91
@21 00192748
@22 001C8D60
@23 001D9DC0
@24 001C481B
@25 0018ADD0
@26 00131EBA
@27 000C1253
@28 00041DB3
@29 FFFBE744
@2A FFF4192D
@2B FFED5391
@2C FFE81FC0
@2D FFE4E55C
@2E FFE3E24E
@2F FFE5262B
@30 FFE89166
@31 FFEDD846
@32 FFF4896E
@33 FFFC1757
@34 0003E401
@35 000B4DD2
@36 0011BCA8
@37 0016AE07
@38 0019BF6B
@39 001AB5EC
@3A 001982A1
@3B 0016436E
@3C 0011402F
@3D 000AE488
@3E 0003B6EA
@3F FFFC4D75
