@00 0001A4
@01 00021A
@02 000264
@03 00027C
@04 000260
@05 000214
@06 00019D
@07 000105
@08 000059
@09 FFFFA7
@0A FFFEFD
@0B FFFE69
@0C FFFDF6
@0D FFFDAE
@0E FFFD97
@0F FFFDB1
@10 FFFDFC
@11 FFFE6F
@12 FFFF02
@13 FFFFA9
@14 000056
@15 0000FC
@16 00018C
@17 0001FB
@18 000240
@19 000257
@1A 00023D
@1B 0001F5
@1C 000185
@1D 0000F6
@1E 000054
@1F FFFFAC
@20 FFFF0C
@21 FFFE80
@22 FFFE14
@23 FFFDD1
@24 FFFDBB
@25 FFFDD4
@26 FFFE1A
@27 FFFE86
@28 FFFF11
@29 FFFFAE
@2A 000051
@2B 0000ED
@2C 000175
@2D 0001DD
@2E 00021F
@2F 000234
@30 00021C
@31 0001D8
@32 00016E
@33 0000E8
@34 00004F
@35 FFFFB1
@36 FFFF1A
@37 FFFE97
@38 FFFE31
@39 FFFDF1
@3A FFFDDD
@3B FFFDF4
@3C FFFE36
@3D FFFE9D
@3E FFFF1F
@3F FFFFB3
