@00 000CB0
@01 0009E6
@02 00064B
@03 000229
@04 FFFDD5
@05 FFF9A9
@06 FFF5FB
@07 FFF319
@08 FFF140
@09 FFF097
@0A FFF12E
@0B FFF2F9
@0C FFF5D6
@0D FFF989
@0E FFFDC8
@0F 00023A
@10 000683
@11 000A4A
@12 000D40
@13 000F26
@14 000FD3
@15 000F39
@16 000D61
@17 000A71
@18 0006A3
@19 000248
@1A FFFDB7
@1B FFF950
@1C FFF56F
@1D FFF264
@1E FFF071
@1F FFEFBE
@20 FFF05D
@21 FFF242
@22 FFF547
@23 FFF92E
@24 FFFDA8
@25 000259
@26 0006DF
@27 000ADC
@28 000DFC
@29 000FFD
@2A 0010B4
@2B 001011
@2C 000E1F
@2D 000B05
@2E 000702
@2F 000268
@30 FFFD96
@31 FFF8F0
@32 FFF4D7
@33 FFF1A1
@34 FFEF92
@35 FFEED5
@36 FFEF7D
@37 FFF17C
@38 FFF4AC
@39 FFF8CC
@3A FFFD87
@3B 00027B
@3C 000742
@3D 000B78
@3E 000EC6
@3F 0010E4
