@00 00027F
@01 0001F3
@02 00013D
@03 00006D
@04 FFFF93
@05 FFFEC0
@06 FFFE07
@07 FFFD75
@08 FFFD18
@09 FFFCF6
@0A FFFD14
@0B FFFD6E
@0C FFFDFF
@0D FFFEBA
@0E FFFF90
@0F 000070
@10 000149
@11 000208
@12 00029D
@13 0002FD
@14 000320
@15 000301
@16 0002A4
@17 000210
@18 000150
@19 000073
@1A FFFF8C
@1B FFFEAE
@1C FFFDEA
@1D FFFD50
@1E FFFCED
@1F FFFCCA
@20 FFFCE9
@21 FFFD49
@22 FFFDE1
@23 FFFEA7
@24 FFFF89
@25 000077
@26 00015C
@27 000226
@28 0002C4
@29 000329
@2A 00034E
@2B 00032D
@2C 0002CB
@2D 00022E
@2E 000163
@2F 00007A
@30 FFFF86
@31 FFFE9B
@32 FFFDCB
@33 FFFD28
@34 FFFCC0
@35 FFFC9B
@36 FFFCBC
@37 FFFD21
@38 FFFDC3
@39 FFFE93
@3A FFFF83
@3B 00007E
@3C 00016F
@3D 000245
@3E 0002EC
@3F 000357
