@00 0B984BB9
@01 0B482019
@02 0AABAED6
@03 09CA8A20
@04 08AF806E
@05 0767FD7A
@06 06034620
@07 04919B60
@08 0323523E
@09 01C7EECF
@0A 008D5051
@0B FF7EFB07
@0C FEA58A65
@0D FE065360
@0E FDA33B97
@0F FD7AC663
@10 FD8855AC
@11 FDC498C1
@12 FE2620FB
@13 FEA21167
@14 FF2CDD78
@15 FFBB09F9
@16 0041E3CC
@17 00B820FA
@18 01166271
@19 01578F37
@1A 0179049E
@1B 017A9A0F
@1C 015E7A20
@1D 0128D560
@1E 00DF75DF
@1F 00893C27
@20 002D8FCA
@21 FFD3CE01
@22 FF82C096
@23 FF402673
@24 FF10556D
@25 FEF5FAF6
@26 FEF1FEDC
@27 FF0388B4
@28 FF282610
@29 FF5C0D48
@2A FF9A76CE
@2B FFDE0576
@2C 00213571
@2D 005EC975
@2E 00922E00
@2F 00B7CBBE
@30 00CD437E
@31 00D1901B
@32 00C50CB9
@33 00A95FF5
@34 00814E80
@35 0050798A
@36 001B0EA6
@37 FFE56FC8
@38 FFB3DA52
@39 FF8A140B
@3A FF6B242B
@3B FF591D7D
@3C FF54FD3F
@3D FF5EA08E
@3E FF74D08A
@3F FF956384
