@00 FFFF5E1D
@01 FFFF98E0
@02 FFFFDC86
@03 000023A1
@04 00006872
@05 0000A55C
@06 0000D55A
@07 0000F468
@08 0000FFDB
@09 0000F697
@0A 0000D92D
@0B 0000A9D4
@0C 00006C39
@0D 0000253F
@0E FFFFDA94
@0F FFFF9243
@10 FFFF5231
@11 FFFF1FA9
@12 FFFEFEE8
@13 FFFEF2C3
@14 FFFEFC6B
@15 FFFF1B4C
@16 FFFF4D19
@17 FFFF8DF4
@18 FFFFD8BC
@19 00002776
@1A 000073C4
@1B 0000B76A
@1C 0000ECD1
@1D 00010F7B
@1E 00011C64
@1F 00011248
@20 0000F1BA
@21 0000BD26
@22 0000789E
@23 0000298A
@24 FFFFD63E
@25 FFFF8576
@26 FFFF3DCC
@27 FFFF052F
@28 FFFEE064
@29 FFFED2A1
@2A FFFEDD44
@2B FFFEFFB4
@2C FFFF3766
@2D FFFF800C
@2E FFFFD3ED
@2F 00002C52
@30 00008216
@31 0000CE36
@32 00010A63
@33 00013189
@34 0001403A
@35 000134FD
@36 00011073
@37 0000D54A
@38 00008812
@39 00002EE2
@3A FFFFD0D9
@3B FFFF7593
@3C FFFF2487
@3D FFFEE46E
@3E FFFEBAB2
@3F FFFEAAFE
