@00 000076
@01 000068
@02 000050
@03 000033
@04 000011
@05 FFFFEF
@06 FFFFCD
@07 FFFFB0
@08 FFFF9A
@09 FFFF8C
@0A FFFF87
@0B FFFF8C
@0C FFFF9B
@0D FFFFB1
@0E FFFFCE
@0F FFFFEF
@10 000011
@11 000032
@12 00004E
@13 000064
@14 000072
@15 000076
@16 000071
@17 000063
@18 00004D
@19 000031
@1A 000011
@1B FFFFEF
@1C FFFFCF
@1D FFFFB4
@1E FFFF9E
@1F FFFF90
@20 FFFF8C
@21 FFFF91
@22 FFFF9F
@23 FFFFB4
@24 FFFFD0
@25 FFFFF0
@26 000010
@27 000030
@28 00004B
@29 000060
@2A 00006E
@2B 000072
@2C 00006D
@2D 000060
@2E 00004A
@2F 00002F
@30 000010
@31 FFFFF0
@32 FFFFD1
@33 FFFFB6
@34 FFFFA1
@35 FFFF94
@36 FFFF90
@37 FFFF95
@38 FFFFA2
@39 FFFFB7
@3A FFFFD2
@3B FFFFF0
@3C 000010
@3D 00002E
@3E 000049
@3F 00005D
