@00 00007C
@01 000077
@02 000068
@03 000051
@04 000034
@05 000012
@06 FFFFEE
@07 FFFFCC
@08 FFFFAE
@09 FFFF96
@0A FFFF87
@0B FFFF81
@0C FFFF86
@0D FFFF95
@0E FFFFAD
@0F FFFFCB
@10 FFFFEE
@11 000012
@12 000035
@13 000054
@14 00006D
@15 00007C
@16 000082
@17 00007D
@18 00006E
@19 000055
@1A 000036
@1B 000013
@1C FFFFED
@1D FFFFC9
@1E FFFFAA
@1F FFFF91
@20 FFFF81
@21 FFFF7B
@22 FFFF80
@23 FFFF90
@24 FFFFA8
@25 FFFFC8
@26 FFFFED
@27 000013
@28 000038
@29 000059
@2A 000072
@2B 000083
@2C 000089
@2D 000083
@2E 000073
@2F 00005A
@30 000039
@31 000014
@32 FFFFEC
@33 FFFFC6
@34 FFFFA5
@35 FFFF8B
@36 FFFF7A
@37 FFFF74
@38 FFFF79
@39 FFFF89
@3A FFFFA3
@3B FFFFC5
@3C FFFFEC
@3D 000014
@3E 00003B
@3F 00005E
