@00 004CE0
@01 004F12
@02 0055A4
@03 006083
@04 006F96
@05 0082B4
@06 0099AF
@07 00B44A
@08 00D244
@09 00F34E
@0A 011716
@0B 013D3F
@0C 01656A
@0D 018F30
@0E 01BA26
@0F 01E5E0
@10 0211ED
@11 023DDF
@12 026945
@13 0293B0
@14 02BCB5
@15 02E3EC
@16 0308F1
@17 032B65
@18 034AF0
@19 036744
@1A 038017
@1B 03952A
@1C 03A648
@1D 03B345
@1E 03BC00
@1F 03C064
@20 03C064
@21 03BC00
@22 03B345
@23 03A648
@24 03952A
@25 038017
@26 036744
@27 034AF0
@28 032B65
@29 0308F1
@2A 02E3EC
@2B 02BCB5
@2C 0293B0
@2D 026945
@2E 023DDF
@2F 0211ED
@30 01E5E0
@31 01BA26
@32 018F30
@33 01656A
@34 013D3F
@35 011716
@36 00F34E
@37 00D244
@38 00B44A
@39 0099AF
@3A 0082B4
@3B 006F96
@3C 006083
@3D 0055A4
@3E 004F12
@3F 004CE0
