@00 00087B
@01 000ADF
@02 000C5E
@03 000CDC
@04 000C50
@05 000AC5
@06 00085D
@07 00054B
@08 0001CF
@09 FFFE32
@0A FFFABE
@0B FFF7BB
@0C FFF567
@0D FFF3F0
@0E FFF375
@0F FFF3FF
@10 FFF57F
@11 FFF7D8
@12 FFFAD6
@13 FFFE3C
@14 0001C3
@15 000521
@16 000810
@17 000A56
@18 000BC3
@19 000C3B
@1A 000BB5
@1B 000A3E
@1C 0007F4
@1D 000509
@1E 0001B9
@1F FFFE48
@20 FFFB00
@21 FFF822
@22 FFF5EB
@23 FFF487
@24 FFF412
@25 FFF494
@26 FFF603
@27 FFF83E
@28 FFFB17
@29 FFFE52
@2A 0001AD
@2B 0004E1
@2C 0007AC
@2D 0009D5
@2E 000B31
@2F 000BA3
@30 000B24
@31 0009BF
@32 000792
@33 0004CA
@34 0001A3
@35 FFFE5E
@36 FFFB3E
@37 FFF884
@38 FFF668
@39 FFF515
@3A FFF4A6
@3B FFF522
@3C FFF67E
@3D FFF89E
@3E FFFB54
@3F FFFE67
