@00 000098DE
@01 0001BBBD
@02 0002B7A1
@03 000378AA
@04 0003EFEE
@05 000414A2
@06 0003E4BB
@07 00036506
@08 0002A0B3
@09 0001A858
@0A 0000908F
@0B FFFF7040
@0C FFFE5EC1
@0D FFFD71F3
@0E FFFCBC84
@0F FFFC4C75
@10 FFFC2A06
@11 FFFC571F
@12 FFFCCF37
@13 FFFD87C9
@14 FFFE7139
@15 FFFF7829
@16 00008712
@17 00018806
@18 00026677
@19 000310DD
@1A 00037A12
@1B 00039A5A
@1C 00036FEE
@1D 0002FF14
@1E 000251B3
@1F 00017675
@20 00007F8C
@21 FFFF8130
@22 FFFE8FF7
@23 FFFDBF2C
@24 FFFD1F44
@25 FFFCBC92
@26 FFFC9E55
@27 FFFCC635
@28 FFFD302A
@29 FFFDD2E8
@2A FFFEA0A8
@2B FFFF8856
@2C 000076F8
@2D 0001593F
@2E 00021D13
@2F 0002B306
@30 00030F8C
@31 00032BD9
@32 00030667
@33 0002A2FE
@34 00020A5B
@35 0001496A
@36 00007030
@37 FFFF9079
@38 FFFEBC5E
@39 FFFE04D6
@3A FFFD7854
@3B FFFD21A9
@3C FFFD072F
@3D FFFD2A53
@3E FFFD8785
@3F FFFE1694
