@00 FFFE9A
@01 FFFE89
@02 FFFE97
@03 FFFEC3
@04 FFFF08
@05 FFFF63
@06 FFFFCA
@07 000036
@08 00009F
@09 0000FB
@0A 000144
@0B 000172
@0C 000183
@0D 000175
@0E 000148
@0F 000100
@10 0000A3
@11 000038
@12 FFFFC8
@13 FFFF5C
@14 FFFEFC
@15 FFFEB2
@16 FFFE81
@17 FFFE70
@18 FFFE7F
@19 FFFEAE
@1A FFFEF8
@1B FFFF58
@1C FFFFC6
@1D 00003A
@1E 0000AA
@1F 00010C
@20 000159
@21 00018B
@22 00019D
@23 00018D
@24 00015D
@25 000111
@26 0000AE
@27 00003C
@28 FFFFC4
@29 FFFF51
@2A FFFEEB
@2B FFFE9B
@2C FFFE68
@2D FFFE56
@2E FFFE66
@2F FFFE97
@30 FFFEE6
@31 FFFF4D
@32 FFFFC2
@33 00003E
@34 0000B5
@35 00011E
@36 000170
@37 0001A5
@38 0001B8
@39 0001A8
@3A 000175
@3B 000123
@3C 0000B9
@3D 000040
@3E FFFFC0
@3F FFFF45
