@00 FFF8AE
@01 FFF8FE
@02 FFF9DE
@03 FFFB3D
@04 FFFCFC
@05 FFFEF8
@06 000107
@07 0002FF
@08 0004B6
@09 00060A
@0A 0006DF
@0B 000725
@0C 0006D7
@0D 0005FC
@0E 0004A6
@0F 0002F1
@10 000101
@11 FFFEFF
@12 FFFD14
@13 FFFB67
@14 FFFA1C
@15 FFF94C
@16 FFF907
@17 FFF953
@18 FFFA29
@19 FFFB77
@1A FFFD21
@1B FFFF05
@1C 0000FB
@1D 0002DA
@1E 00047C
@1F 0005C0
@20 00068B
@21 0006CE
@22 000684
@23 0005B3
@24 00046D
@25 0002CD
@26 0000F5
@27 FFFF0B
@28 FFFD38
@29 FFFBA0
@2A FFFA64
@2B FFF99E
@2C FFF95C
@2D FFF9A5
@2E FFFA71
@2F FFFBAE
@30 FFFD44
@31 FFFF11
@32 0000EF
@33 0002B7
@34 000445
@35 000579
@36 00063B
@37 00067A
@38 000634
@39 00056D
@3A 000437
@3B 0002AB
@3C 0000E9
@3D FFFF17
@3E FFFD5A
@3F FFFBD5
